<unk>	0
<0x00>	0
<0x01>	0
<0x02>	0
<0x03>	0
<0x04>	0
<0x05>	0
<0x06>	0
<0x07>	0
<0x08>	0
<0x09>	0
<0x0A>	0
<0x0B>	0
<0x0C>	0
<0x0D>	0
<0x0E>	0
<0x0F>	0
<0x10>	0
<0x11>	0
<0x12>	0
<0x13>	0
<0x14>	0
<0x15>	0
<0x16>	0
<0x17>	0
<0x18>	0
<0x19>	0
<0x1A>	0
<0x1B>	0
<0x1C>	0
<0x1D>	0
<0x1E>	0
<0x1F>	0
<0x20>	0
<0x21>	0
<0x22>	0
<0x23>	0
<0x24>	0
<0x25>	0
<0x26>	0
<0x27>	0
<0x28>	0
<0x29>	0
<0x2A>	0
<0x2B>	0
<0x2C>	0
<0x2D>	0
<0x2E>	0
<0x2F>	0
<0x30>	0
<0x31>	0
<0x32>	0
<0x33>	0
<0x34>	0
<0x35>	0
<0x36>	0
<0x37>	0
<0x38>	0
<0x39>	0
<0x3A>	0
<0x3B>	0
<0x3C>	0
<0x3D>	0
<0x3E>	0
<0x3F>	0
<0x40>	0
<0x41>	0
<0x42>	0
<0x43>	0
<0x44>	0
<0x45>	0
<0x46>	0
<0x47>	0
<0x48>	0
<0x49>	0
<0x4A>	0
<0x4B>	0
<0x4C>	0
<0x4D>	0
<0x4E>	0
<0x4F>	0
<0x50>	0
<0x51>	0
<0x52>	0
<0x53>	0
<0x54>	0
<0x55>	0
<0x56>	0
<0x57>	0
<0x58>	0
<0x59>	0
<0x5A>	0
<0x5B>	0
<0x5C>	0
<0x5D>	0
<0x5E>	0
<0x5F>	0
<0x60>	0
<0x61>	0
<0x62>	0
<0x63>	0
<0x64>	0
<0x65>	0
<0x66>	0
<0x67>	0
<0x68>	0
<0x69>	0
<0x6A>	0
<0x6B>	0
<0x6C>	0
<0x6D>	0
<0x6E>	0
<0x6F>	0
<0x70>	0
<0x71>	0
<0x72>	0
<0x73>	0
<0x74>	0
<0x75>	0
<0x76>	0
<0x77>	0
<0x78>	0
<0x79>	0
<0x7A>	0
<0x7B>	0
<0x7C>	0
<0x7D>	0
<0x7E>	0
<0x7F>	0
<0x80>	0
<0x81>	0
<0x82>	0
<0x83>	0
<0x84>	0
<0x85>	0
<0x86>	0
<0x87>	0
<0x88>	0
<0x89>	0
<0x8A>	0
<0x8B>	0
<0x8C>	0
<0x8D>	0
<0x8E>	0
<0x8F>	0
<0x90>	0
<0x91>	0
<0x92>	0
<0x93>	0
<0x94>	0
<0x95>	0
<0x96>	0
<0x97>	0
<0x98>	0
<0x99>	0
<0x9A>	0
<0x9B>	0
<0x9C>	0
<0x9D>	0
<0x9E>	0
<0x9F>	0
<0xA0>	0
<0xA1>	0
<0xA2>	0
<0xA3>	0
<0xA4>	0
<0xA5>	0
<0xA6>	0
<0xA7>	0
<0xA8>	0
<0xA9>	0
<0xAA>	0
<0xAB>	0
<0xAC>	0
<0xAD>	0
<0xAE>	0
<0xAF>	0
<0xB0>	0
<0xB1>	0
<0xB2>	0
<0xB3>	0
<0xB4>	0
<0xB5>	0
<0xB6>	0
<0xB7>	0
<0xB8>	0
<0xB9>	0
<0xBA>	0
<0xBB>	0
<0xBC>	0
<0xBD>	0
<0xBE>	0
<0xBF>	0
<0xC0>	0
<0xC1>	0
<0xC2>	0
<0xC3>	0
<0xC4>	0
<0xC5>	0
<0xC6>	0
<0xC7>	0
<0xC8>	0
<0xC9>	0
<0xCA>	0
<0xCB>	0
<0xCC>	0
<0xCD>	0
<0xCE>	0
<0xCF>	0
<0xD0>	0
<0xD1>	0
<0xD2>	0
<0xD3>	0
<0xD4>	0
<0xD5>	0
<0xD6>	0
<0xD7>	0
<0xD8>	0
<0xD9>	0
<0xDA>	0
<0xDB>	0
<0xDC>	0
<0xDD>	0
<0xDE>	0
<0xDF>	0
<0xE0>	0
<0xE1>	0
<0xE2>	0
<0xE3>	0
<0xE4>	0
<0xE5>	0
<0xE6>	0
<0xE7>	0
<0xE8>	0
<0xE9>	0
<0xEA>	0
<0xEB>	0
<0xEC>	0
<0xED>	0
<0xEE>	0
<0xEF>	0
<0xF0>	0
<0xF1>	0
<0xF2>	0
<0xF3>	0
<0xF4>	0
<0xF5>	0
<0xF6>	0
<0xF7>	0
<0xF8>	0
<0xF9>	0
<0xFA>	0
<0xFB>	0
<0xFC>	0
<0xFD>	0
<0xFE>	0
<0xFF>	0
▁स	-0
को	-1
मा	-2
र्	-3
▁प	-4
का	-5
्र	-6
न्	-7
▁ग	-8
ने	-9
ले	-10
▁र	-11
्य	-12
▁ब	-13
ला	-14
▁।	-15
▁भ	-16
▁अ	-17
▁क	-18
▁ह	-19
▁व	-20
ार	-21
▁न	-22
▁छ	-23
▁म	-24
▁त	-25
▁द	-26
▁प्र	-27
ाल	-28
स्	-29
▁आ	-30
▁ज	-31
ति	-32
क्	-33
ना	-34
ता	-35
यो	-36
▁उ	-37
ान	-38
▁का	-39
एको	-40
▁गर	-41
▁वि	-42
▁गर्	-43
नि	-44
त्र	-45
म्	-46
नु	-47
हर	-48
लाई	-49
ेको	-50
वा	-51
▁य	-52
ित	-53
िक	-54
▁च	-55
▁हु	-56
▁मा	-57
रा	-58
था	-59
▁ला	-60
▁नि	-61
▁श	-62
▁ने	-63
या	-64
▁ख	-65
▁ए	-66
▁रा	-67
्या	-68
री	-69
▁ल	-70
पाल	-71
न्द	-72
क्ष	-73
▁सा	-74
त्	-75
ल्	-76
▁सं	-77
▁स्	-78
ेश	-79
ेर	-80
▁दि	-81
▁थ	-82
▁पनि	-83
ष्	-84
हि	-85
▁लाग	-86
बा	-87
▁नेपाल	-88
▁सम	-89
ुर	-90
ाउ	-91
▁२	-92
▁१	-93
▁फ	-94
हा	-95
हरु	-96
पा	-97
दै	-98
र्य	-99
नी	-100
रि	-101
▁हो	-102
दा	-103
कार	-104
ेका	-105
▁थि	-106
स्त	-107
न्छ	-108
एका	-109
▁भएको	-110
द्	-111
ाम	-112
बाट	-113
▁सम्	-114
क्र	-115
न्त्र	-116
ष्ट	-117
▁पा	-118
िका	-119
▁के	-120
▁छन्	-121
▁लागि	-122
वि	-123
▁भने	-124
▁त्य	-125
▁निर्	-126
हरू	-127
▁घ	-128
ेल	-129
भा	-130
▁पु	-131
▁कार्य	-132
रण	-133
ेख	-134
▁रह	-135
▁एक	-136
▁गर्न	-137
लो	-138
▁को	-139
र्ष	-140
▁गर्ने	-141
▁गरि	-142
▁ट	-143
सा	-144
▁ध	-145
▁यो	-146
▁कु	-147
छि	-148
्न	-149
ीय	-150
▁गरेको	-151
देश	-152
ही	-153
▁सु	-154
न्त	-155
▁प्रति	-156
ारी	-157
▁बा	-158
भि	-159
▁यस	-160
धि	-161
रो	-162
्च	-163
ली	-164
गा	-165
▁ड	-166
धान	-167
स्था	-168
्रो	-169
ध्य	-170
▁आफ	-171
▁सर	-172
टा	-173
▁व्य	-174
िय	-175
▁तथा	-176
▁उन	-177
..	-178
▁क्	-179
▁सह	-180
योग	-181
ण्	-182
▁दु	-183
ेखि	-184
ौं	-185
पर्	-186
▁बि	-187
▁हुने	-188
ँग	-189
गर	-190
▁बता	-191
कि	-192
बार	-193
▁२०	-194
▁थियो	-195
पछि	-196
▁अनु	-197
▁रु	-198
▁बढ	-199
▁राज	-200
ेस	-201
▁उप	-202
म्म	-203
न्न	-204
ण्ड	-205
ेट	-206
▁(	-207
की	-208
िन	-209
ष्ट्र	-210
ालय	-211
▁वर्ष	-212
▁मु	-213
्व	-214
िल्	-215
ंग	-216
रह	-217
र्थ	-218
न्त्री	-219
टी	-220
ाइ	-221
ठमा	-222
▁सि	-223
र्व	-224
▁सरकार	-225
स्थ	-226
▁क्ष	-227
सी	-228
▁हाम	-229
प्	-230
डि	-231
▁गर्नु	-232
क्रम	-233
▁वा	-234
▁जना	-235
▁काठमा	-236
न्द्र	-237
ङ्	-238
प्र	-239
हो	-240
सँग	-241
▁नै	-242
नमा	-243
सि	-244
क्त	-245
▁काम	-246
कारी	-247
▁भए	-248
▁इ	-249
ेत	-250
▁लि	-251
▁अव	-252
याँ	-253
▁काठमाड	-254
▁‘	-255
जार	-256
▁तर	-257
द्ध	-258
▁परि	-259
▁समा	-260
▁ठ	-261
ँदै	-262
▁३	-263
सार	-264
न्य	-265
▁त्यस	-266
▁विश	-267
हाँ	-268
▁नेपाली	-269
पमा	-270
बै	-271
नको	-272
▁स्थ	-273
▁से	-274
लि	-275
▁बना	-276
न्ध	-277
चार	-278
▁थिए	-279
▁'	-280
▁बै	-281
न्दा	-282
▁रहेको	-283
▁भन्	-284
जना	-285
दी	-286
डा	-287
ुरु	-288
द्य	-289
ेत्र	-290
मु	-291
ती	-292
जा	-293
▁सबै	-294
िम	-295
ानी	-296
मन्त्री	-297
हु	-298
▁राष्ट्र	-299
▁सो	-300
▁व्यव	-301
▁क्षेत्र	-302
त्य	-303
एर	-304
ाउँ	-305
ैन	-306
▁प्रा	-307
हिले	-308
▁मि	-309
क्षा	-310
उने	-311
वार	-312
्ने	-313
▁५	-314
▁गरेका	-315
स्ता	-316
ोज	-317
▁कि	-318
▁पू	-319
▁जन	-320
उन	-321
म्प	-322
▁उनले	-323
▁पार्	-324
▁जा	-325
▁बु	-326
धार	-327
▁अध्य	-328
माण	-329
सम्म	-330
र्म	-331
▁देखि	-332
क्ति	-333
ञ्च	-334
▁भएका	-335
ीले	-336
स्तो	-337
▁हुन्छ	-338
▁पर्	-339
ेला	-340
▁ना	-341
रु	-342
तिक	-343
बन्ध	-344
▁छैन	-345
▁दिन	-346
▁आफ्न	-347
▁मात्र	-348
▁महि	-349
▁गरिएको	-350
▁उनी	-351
ंक	-352
टर	-353
▁स्थान	-354
▁?	-355
ग्र	-356
▁गत	-357
▁गर्दै	-358
▁४	-359
▁काठमाडौं	-360
र्ण	-361
▁सक्	-362
▁उत्	-363
▁अर्	-364
मि	-365
▁कार्यक्रम	-366
▁प्रदेश	-367
िल्ला	-368
िया	-369
सक	-370
▁जान	-371
पालिका	-372
▁समय	-373
ेद	-374
▁कुरा	-375
▁हजार	-376
नै	-377
शा	-378
▁मह	-379
▁प्रहर	-380
लेख	-381
▁भन्ने	-382
▁जिल्ला	-383
▁गरी	-384
निक	-385
टक	-386
▁था	-387
▁राख	-388
मान	-389
▁गरे	-390
▁पर	-391
▁हुन	-392
▁ओ	-393
दि	-394
्ञ	-395
▁ती	-396
भाव	-397
नुभ	-398
्रा	-399
कृ	-400
▁जो	-401
ारत	-402
गत	-403
▁पहि	-404
नुपर्	-405
कु	-406
छन्	-407
▁दुई	-408
्रम	-409
रहेको	-410
▁पो	-411
रमा	-412
▁यु	-413
िति	-414
▁भा	-415
▁आफ्नो	-416
र्ता	-417
चि	-418
▁६	-419
▁रो	-420
ेक	-421
▁पुग	-422
्यो	-423
▁स्व	-424
▁शि	-425
ाउने	-426
...	-427
ेरै	-428
▁भारत	-429
▁कम	-430
▁तपा	-431
▁आज	-432
▁:	-433
▁झ	-434
कास	-435
▁चा	-436
▁कारण	-437
▁स्वा	-438
बी	-439
▁प्रधान	-440
डी	-441
▁अहिले	-442
ुट	-443
▁अन्त	-444
▁पार्टी	-445
▁अध्यक्ष	-446
त्व	-447
पुर	-448
▁निर्माण	-449
▁दा	-450
▁देश	-451
ौँ	-452
▁केही	-453
▁लग	-454
▁२०७	-455
जी	-456
▁धेरै	-457
मुख	-458
बर	-459
▁केन्द्र	-460
फल	-461
कै	-462
जन	-463
ाउन	-464
होस्	-465
▁आयो	-466
▁हि	-467
▁लाख	-468
▁खा	-469
▁नयाँ	-470
▁साथ	-471
▁गो	-472
देखि	-473
▁विकास	-474
▁निर्वा	-475
हित	-476
यर	-477
▁बो	-478
ेन्	-479
ँदा	-480
पू	-481
▁अध	-482
ँच	-483
▁तपाई	-484
▁७	-485
ष्ठ	-486
र्च	-487
ुन	-488
▁हुन्	-489
वन	-490
▁कुनै	-491
▁मो	-492
▁भि	-493
र्फ	-494
ैले	-495
घि	-496
टो	-497
▁या	-498
ब्	-499
ूल	-500
▁बताए	-501
▁नगर	-502
▁व्यवस्था	-503
▁निर्वाच	-504
ाली	-505
▁-	-506
स्य	-507
दान	-508
▁घर	-509
▁सञ्च	-510
यु	-511
▁अभि	-512
▁हा	-513
▁प्रहरी	-514
ारा	-515
▁प्रधानमन्त्री	-516
▁शा	-517
▁विश्व	-518
▁श्र	-519
पी	-520
▁सद	-521
▁सय	-522
ज्ञ	-523
इन	-524
▁महा	-525
हरुको	-526
▁जानकारी	-527
भन्दा	-528
▁आव	-529
 ।	-530
▁गु	-531
ुक	-532
▁सकि	-533
▁कार्यालय	-534
▁राम	-535
ग्	-536
▁लगा	-537
मी	-538
खा	-539
भाग	-540
मेर	-541
▁स्थानीय	-542
यन	-543
▁तय	-544
हरुले	-545
ारे	-546
यत	-547
▁खेल	-548
▁गा	-549
▁अवस्था	-550
▁कस	-551
मै	-552
▁प्रमुख	-553
▁सरकारले	-554
ताको	-555
▁चि	-556
स्ट	-557
▁समेत	-558
▁रुपमा	-559
▁विष	-560
स्तै	-561
▁खु	-562
लमा	-563
▁१०	-564
ोक	-565
▁राष्ट्रिय	-566
▁अनुसार	-567
चना	-568
▁हामी	-569
▁नेता	-570
टना	-571
▁पहिलो	-572
वादी	-573
णा	-574
पति	-575
▁हे	-576
▁मृ	-577
श्य	-578
▁रू	-579
▁समिति	-580
वास	-581
▁रुप	-582
▁संघ	-583
माले	-584
▁सम्बन्ध	-585
न्दै	-586
▁९	-587
▁८	-588
च्च	-589
सो	-590
▁सेवा	-591
▁महिला	-592
▁गरेर	-593
▁हाम्रो	-594
▁डा	-595
ट्	-596
स्या	-597
▁बढी	-598
▁गते	-599
धा	-600
प्त	-601
न्ति	-602
▁विषय	-603
▁प्रयोग	-604
्यान	-605
▁अस	-606
▁गाउँ	-607
▁ढ	-608
स्थ्य	-609
नुभयो	-610
र्या	-611
▁बताउ	-612
▁बज	-613
वी	-614
▁ल्या	-615
▁दो	-616
ठक	-617
▁भइ	-618
राज	-619
भिन्न	-620
्रेस	-621
जिक	-622
थि	-623
▁सामा	-624
पाद	-625
टि	-626
▁आएको	-627
▁सुरु	-628
▁लेख	-629
ीमा	-630
सं	-631
▁सदस्य	-632
▁एउ	-633
▁आइ	-634
▁भयो	-635
पि	-636
▁दल	-637
▁मन	-638
दुर	-639
▁अब	-640
▁पत्र	-641
▁बैंक	-642
▁औ	-643
▁देख	-644
▁पछि	-645
डियो	-646
▁समस्या	-647
सन	-648
धन	-649
▁उहाँ	-650
▁मन्त्र	-651
जि	-652
सको	-653
▁शु	-654
्छ	-655
▁कम्प	-656
टन	-657
ङ्ग	-658
▁सञ्चाल	-659
▁सहयोग	-660
पत	-661
▁सुर	-662
▁अस्	-663
इएको	-664
▁सू	-665
ीत	-666
र्त	-667
क्षण	-668
▁स्वास्थ्य	-669
रोड	-670
▁विद्य	-671
▁त्यो	-672
त्यु	-673
▁रहेका	-674
▁मत	-675
श्यक	-676
▁विभिन्न	-677
िर	-678
पन	-679
▁नभ	-680
▁कृ	-681
▁करोड	-682
▁भू	-683
र्श	-684
शत	-685
▁मे	-686
ोर	-687
▁आयोजना	-688
▁मृत्यु	-689
▁निय	-690
▁सम्प	-691
▁तीन	-692
र्ग	-693
▁व्यक्ति	-694
क्रिया	-695
सद	-696
▁बैठक	-697
▁जी	-698
▁हुँदै	-699
▁बारे	-700
▁सार्व	-701
▁गर्दा	-702
र्थिक	-703
करण	-704
▁–	-705
▁अन्य	-706
▁ओली	-707
▁प्रतिशत	-708
यी	-709
▁छो	-710
पूर्ण	-711
▁भन्दै	-712
जनिक	-713
न्स	-714
के	-715
णय	-716
▁जि	-717
▁राजनी	-718
हादुर	-719
▁नाम	-720
नुपर्ने	-721
▁चु	-722
काश	-723
पना	-724
▁निर्णय	-725
▁आर्थिक	-726
लन	-727
ोग	-728
▁दिने	-729
▁कम्पनी	-730
डक	-731
वाद	-732
▁मुख	-733
▁संस्था	-734
▁बस	-735
▁यस्तो	-736
▁सार्वजनिक	-737
िएको	-738
मो	-739
हरूको	-740
ञ्	-741
सु	-742
▁आवश्यक	-743
त्म	-744
▁एउटा	-745
▁उनको	-746
▁N	-747
▁पार	-748
▁आफू	-749
सहित	-750
▁अमेर	-751
सले	-752
▁माग	-753
▁रुपै	-754
सम	-755
▁छा	-756
▁दे	-757
▁रि	-758
हरूले	-759
▁बाल	-760
▁ति	-761
वेश	-762
▁मानि	-763
▁नगरपालिका	-764
ड्	-765
▁पोख	-766
ित्	-767
▁पढ	-768
ेष	-769
▁भन्दा	-770
हरुलाई	-771
हार	-772
त्त	-773
▁डि	-774
▁हेर्	-775
बु	-776
सकेको	-777
र्क	-778
▁अधिका	-779
विधान	-780
र्ड	-781
्यु	-782
▁व्या	-783
रहेका	-784
न्या	-785
ोष	-786
श्च	-787
▁ठू	-788
▁क्षेत्रमा	-789
▁बस्	-790
▁समाज	-791
▁उक्त	-792
नेछ	-793
▁निर्वाचन	-794
बि	-795
▁तपाईं	-796
्रि	-797
al	-798
▁प्रश	-799
पत्र	-800
▁सडक	-801
▁महिना	-802
न्ड	-803
पताल	-804
वारी	-805
लको	-806
द्या	-807
▁पर्य	-808
तामा	-809
▁संविधान	-810
▁ता	-811
▁सम्म	-812
▁रूपमा	-813
▁मन्त्रालय	-814
▁बे	-815
▁अस्पताल	-816
उँ	-817
▁एमाले	-818
युक्त	-819
बीच	-820
से	-821
नुहोस्	-822
▁तह	-823
तन्त्र	-824
सभा	-825
▁स्था	-826
तृ	-827
जु	-828
राष्ट्र	-829
▁बेला	-830
चा	-831
▁गर्नुपर्	-832
▁मूल	-833
▁पुन	-834
यक	-835
▁मुल	-836
ख्या	-837
ंग्रेस	-838
समा	-839
▁आधार	-840
नुहु	-841
▁रुपैयाँ	-842
▁!	-843
▁दिए	-844
गरिक	-845
कम	-846
बहादुर	-847
त्या	-848
▁भनेर	-849
▁सभा	-850
▁किन	-851
▁कांग्रेस	-852
▁समाचार	-853
▁खो	-854
शी	-855
▁बाँ	-856
▁हाल	-857
▁क्रम	-858
▁पटक	-859
▁पूर्व	-860
▁नागरिक	-861
स्थित	-862
▁खोज	-863
▁वै	-864
▁मुख्य	-865
ेरो	-866
▁निर्देश	-867
भित्र	-868
धिकार	-869
▁बजार	-870
पादन	-871
▁अन्तर्	-872
▁नेपालको	-873
▁_	-874
ओवादी	-875
रको	-876
▁थप	-877
▁सन्	-878
स्तु	-879
▁अप	-880
▁मन्त्री	-881
▁संग	-882
▁अनि	-883
द्धि	-884
धिक	-885
▁बने	-886
हान	-887
▁टो	-888
चिव	-889
▁कर्म	-890
▁अघि	-891
▁उल्	-892
▁दिएको	-893
▁जे	-894
▁योजना	-895
▁सम्पन्न	-896
▁2	-897
▁बारेमा	-898
काल	-899
ीको	-900
▁१५	-901
कपा	-902
लेको	-903
पु	-904
ar	-905
ेन्द्र	-906
न्व	-907
▁नेपालमा	-908
▁निका	-909
झा	-910
▁प्रकाश	-911
▁जनाएको	-912
र्ट	-913
▁यी	-914
दैन	-915
सक्	-916
▁"	-917
▁Ne	-918
▁भेट	-919
▁नग	-920
चारी	-921
▁पाँच	-922
ोट	-923
फा	-924
▁काठमाडौँ	-925
▁पर्ने	-926
▁वडा	-927
▁१२	-928
▁होइन	-929
धी	-930
▁न्य	-931
om	-932
क्ता	-933
▁व्यवसा	-934
▁गठ	-935
म्बर	-936
▁लगानी	-937
▁उद्य	-938
▁विद्या	-939
▁प्राप्त	-940
▁प्रभाव	-941
▁नेतृ	-942
▁यहाँ	-943
अघि	-944
▁अगा	-945
▁११	-946
▁आग	-947
मति	-948
वै	-949
ूह	-950
▁राम्रो	-951
▁नेतृत्व	-952
▁चौ	-953
▁फो	-954
▁मेरो	-955
▁परी	-956
▁सर्व	-957
▁घटना	-958
एपछि	-959
▁ले	-960
▁कति	-961
▁अधिकारी	-962
▁कर्मचारी	-963
▁दुर्	-964
दछ	-965
▁साम	-966
भर	-967
▁निक	-968
▁पक्ष	-969
नुपर्छ	-970
▁विज्ञ	-971
▁थापा	-972
▁विशेष	-973
विधि	-974
▁क्र	-975
ेन	-976
▁मान	-977
▁नेकपा	-978
▁अन	-979
घा	-980
क्षक	-981
▁शिक्षा	-982
▁वटा	-983
▁१९	-984
बारे	-985
▁ठूलो	-986
निधि	-987
▁सम्झ	-988
ेष्ठ	-989
▁पक्र	-990
▁चार	-991
in	-992
▁मुलुक	-993
स्रो	-994
▁सक्छ	-995
▁उपचार	-996
▁सहभाग	-997
▁तयारी	-998
ुवा	-999
▁विदेश	-1000
तमा	-1001
प्रति	-1002
ुल	-1003
▁ची	-1004
▁मात्रै	-1005
▁माओवादी	-1006
▁गर्नुहोस्	-1007
क्रमण	-1008
▁घोष	-1009
▁गीत	-1010
नाव	-1011
▁जारी	-1012
▁सामाजिक	-1013
▁हुनेछ	-1014
षा	-1015
▁पक्राउ	-1016
▁अर्थ	-1017
▁सुरक्षा	-1018
▁गाउँपालिका	-1019
▁लोक	-1020
न्छन्	-1021
▁भनि	-1022
▁राजनीतिक	-1023
▁नी	-1024
▁सङ्	-1025
▁सफल	-1026
▁बन्द	-1027
्री	-1028
▁इन्	-1029
म्भ	-1030
ृद्धि	-1031
वरण	-1032
रोना	-1033
▁अर्को	-1034
▁दश	-1035
▁सञ्चालन	-1036
ैं	-1037
सँगै	-1038
ध्ये	-1039
क्स	-1040
मार	-1041
▁“	-1042
▁विद्यालय	-1043
रुद्ध	-1044
▁उपा	-1045
न्तर	-1046
▁आएका	-1047
त्ता	-1048
दर्श	-1049
▁जित	-1050
▁फिल्	-1051
राम	-1052
▁चल	-1053
▁,	-1054
ेयर	-1055
▁जनता	-1056
▁बनाउन	-1057
▁छल	-1058
▁मैले	-1059
▁कृष	-1060
ठा	-1061
▁बुझ	-1062
▁कोरोना	-1063
ञ्ज	-1064
▁परिवार	-1065
बल	-1066
▁सूचना	-1067
ग्रह	-1068
▁कार्यक्रममा	-1069
▁रे	-1070
नाइ	-1071
▁आयोग	-1072
राष्ट्रिय	-1073
ल्ला	-1074
दे	-1075
चित्र	-1076
▁उद्योग	-1077
▁छलफल	-1078
▁फि	-1079
▁युवा	-1080
एन	-1081
▁राज्य	-1082
▁लक्ष	-1083
▁अझ	-1084
रोध	-1085
▁नं	-1086
▁उल्लेख	-1087
र्मा	-1088
शु	-1089
दाय	-1090
▁घोषणा	-1091
▁कसरी	-1092
त्मक	-1093
▁ऐ	-1094
▁गर्छ	-1095
▁दोस्रो	-1096
▁रकम	-1097
▁विषयमा	-1098
र्थी	-1099
▁चाह	-1100
▁उत्पादन	-1101
▁ठाउँ	-1102
▁समूह	-1103
व्य	-1104
▁हुँदा	-1105
नुहुन्छ	-1106
▁श्रेष्ठ	-1107
▁बी	-1108
यान	-1109
▁क्रममा	-1110
▁पाइ	-1111
पनि	-1112
▁खर्च	-1113
पो	-1114
▁समु	-1115
▁सां	-1116
सर	-1117
कर्ता	-1118
पर	-1119
अनु	-1120
▁क्या	-1121
ल्या	-1122
▁पद	-1123
▁लागेको	-1124
▁अमेरिका	-1125
हरूलाई	-1126
नले	-1127
हाल	-1128
त्ति	-1129
▁बनाउने	-1130
▁अवस्थामा	-1131
▁सहित	-1132
ीर	-1133
▁अर्ब	-1134
▁पौ	-1135
नामा	-1136
नका	-1137
्वास	-1138
टै	-1139
▁२०१	-1140
दो	-1141
▁आउने	-1142
▁विक	-1143
ेन्ट	-1144
▁अफ	-1145
▁फिल्म	-1146
सन्	-1147
▁बाहि	-1148
▁अद	-1149
▁अगाडि	-1150
▁राष्ट्रपति	-1151
▁उपल	-1152
ृत	-1153
न्दो	-1154
▁पि	-1155
▁संर	-1156
▁नहु	-1157
र्न	-1158
त्रा	-1159
▁यसको	-1160
▁साथै	-1161
लाइ	-1162
ोधन	-1163
▁पुर	-1164
▁०	-1165
▁मूल्य	-1166
वेद	-1167
▁बजेट	-1168
▁नीति	-1169
ल्लो	-1170
▁२५	-1171
▁पै	-1172
ामी	-1173
घटना	-1174
▁हामीले	-1175
र्वा	-1176
▁भएर	-1177
▁टोली	-1178
ेपछि	-1179
वर्त	-1180
▁छन	-1181
▁रोज	-1182
▁लगायत	-1183
▁फा	-1184
▁एव	-1185
▁चलचित्र	-1186
▁उहाँले	-1187
▁श्री	-1188
डेल	-1189
▁सक्ने	-1190
▁मध	-1191
▁जुन	-1192
र्फत	-1193
▁प्रव	-1194
▁गएको	-1195
तर	-1196
साद	-1197
▁पानी	-1198
ते	-1199
▁करि	-1200
▁५०	-1201
▁भिडियो	-1202
ष्ण	-1203
▁साल	-1204
मित	-1205
▁खे	-1206
ेड	-1207
▁परेको	-1208
▁महान	-1209
▁तत्	-1210
▁तयार	-1211
▁ट्र	-1212
▁उम्म	-1213
▁जीवन	-1214
▁आरो	-1215
an	-1216
न्ने	-1217
टमा	-1218
समेत	-1219
लब	-1220
▁दुर्घटना	-1221
▁प्रतिनिधि	-1222
तको	-1223
धारण	-1224
▁व्याप	-1225
▁प्रच	-1226
▁आउ	-1227
गम	-1228
▁उपलब्	-1229
▁बताएका	-1230
▁अधिकार	-1231
▁प्रहरीले	-1232
▁पोखरा	-1233
र्ने	-1234
माथि	-1235
लग	-1236
▁भइरहेको	-1237
▁उच्च	-1238
▁जोड	-1239
▁भारतीय	-1240
स्ताव	-1241
▁सक	-1242
▁संक	-1243
▁अदाल	-1244
ैनिक	-1245
सन्धान	-1246
▁समयमा	-1247
▁1	-1248
▁जाने	-1249
▁१३	-1250
▁उद्	-1251
▁छु	-1252
ृह	-1253
▁भएपछि	-1254
▁सरकारको	-1255
वाह	-1256
वल	-1257
▁विभाग	-1258
▁भाग	-1259
म्ब	-1260
गरी	-1261
▁पत्रकार	-1262
▁हर	-1263
▁मलाई	-1264
▁छि	-1265
गायत	-1266
▁मौ	-1267
कृति	-1268
ws	-1269
▁अनुसन्धान	-1270
▁नम्बर	-1271
▁भ्रम	-1272
▁20	-1273
on	-1274
नुभएको	-1275
चाल	-1276
अनुसार	-1277
▁१४	-1278
▁परिवर्त	-1279
▁गर्नुभ	-1280
▁सकिन्छ	-1281
▁कृषि	-1282
तर्फ	-1283
▁अध्ययन	-1284
▁३०	-1285
कको	-1286
▁प्रतियोग	-1287
ट्ट	-1288
दार	-1289
▁संसद	-1290
▁कार	-1291
्दै	-1292
ेरि	-1293
रू	-1294
▁सबैभन्दा	-1295
▁आन्दो	-1296
▁मानिस	-1297
तम	-1298
राई	-1299
हरुमा	-1300
▁भु	-1301
ष्टि	-1302
er	-1303
्नु	-1304
▁उम्मेद	-1305
सम्	-1306
▁शेयर	-1307
ेम	-1308
छा	-1309
▁प्रस्ताव	-1310
▁पूरा	-1311
▁छुट	-1312
ालिका	-1313
लिक	-1314
िता	-1315
भव	-1316
जक	-1317
▁गर्नुपर्ने	-1318
लु	-1319
▁जन्	-1320
▁सचिव	-1321
▁सोम	-1322
थ्यो	-1323
▁बर्ष	-1324
▁१६	-1325
▁१८	-1326
इन्	-1327
▁अभियान	-1328
र्चा	-1329
च्छ	-1330
मिक	-1331
▁प्रक्रिया	-1332
▁देउ	-1333
तले	-1334
▁योग	-1335
▁नियन्त्र	-1336
▁संख्या	-1337
▁भएकाले	-1338
▁पी	-1339
pal	-1340
▁विज	-1341
▁विद्यार्थी	-1342
▁न्या	-1343
▁निकै	-1344
▁२०७५	-1345
▁कार्या	-1346
▁चुनाव	-1347
▁बस्ने	-1348
▁सी	-1349
▁कला	-1350
ंश	-1351
पर्क	-1352
▁त्यहाँ	-1353
▁विस्त	-1354
▁शक्ति	-1355
▁जनाको	-1356
▁दर्ता	-1357
ानो	-1358
यात	-1359
▁कानु	-1360
▁प्रत्य	-1361
तिमा	-1362
शि	-1363
▁सरकारी	-1364
▁ई	-1365
ल्ने	-1366
ध्यक्ष	-1367
▁अन्तर्राष्ट्रिय	-1368
▁कार्	-1369
▁शर्मा	-1370
▁गरिने	-1371
▁फाइ	-1372
त्री	-1373
▁ज्ञ	-1374
▁दिएका	-1375
साइ	-1376
▁ब्या	-1377
▁गुरु	-1378
होस	-1379
▁सहमति	-1380
र्स	-1381
२०	-1382
▁सन्द	-1383
ारि	-1384
▁उठ	-1385
▁प्रदान	-1386
▁अधिक	-1387
▁म्या	-1388
▁चरण	-1389
▁पुगेको	-1390
▁केन्द्रीय	-1391
▁कार्यान्व	-1392
ंगल	-1393
▁पछिल्लो	-1394
▁शुक्र	-1395
रत	-1396
▁ग्र	-1397
▁नियन्त्रण	-1398
▁भ्रमण	-1399
▁होला	-1400
▁महत्व	-1401
ग्री	-1402
▁सांसद	-1403
▁पौडेल	-1404
▁सम्झौ	-1405
▁फर	-1406
▁संस्	-1407
द्दा	-1408
सिक	-1409
▁रोजग	-1410
▁व्यवस्थापन	-1411
▁लामो	-1412
कर्ष	-1413
र्जा	-1414
▁देखिएको	-1415
ंह	-1416
▁प्रतिक्रिया	-1417
▁शुरु	-1418
▁प्रदर्श	-1419
प्रसाद	-1420
▁डे	-1421
न्तिम	-1422
लले	-1423
▁लिएर	-1424
नाले	-1425
पटक	-1426
परि	-1427
▁प्रशा	-1428
▁गरा	-1429
▁बुध	-1430
लव	-1431
लगायत	-1432
▁हुनु	-1433
▁हत्या	-1434
▁१७	-1435
▁अन्तिम	-1436
पक्ष	-1437
▁स्थापना	-1438
at	-1439
जो	-1440
डिया	-1441
श्व	-1442
▁पठ	-1443
▁पाउने	-1444
द्वार	-1445
▁जस्तो	-1446
▁उपलब्ध	-1447
▁प्रचण्ड	-1448
▁फुट	-1449
▁बताउनुभयो	-1450
▁गौ	-1451
शाख	-1452
▁थाहा	-1453
▁विमान	-1454
ेकी	-1455
ाल्	-1456
तरण	-1457
▁P	-1458
▁पूर्ण	-1459
▁रोग	-1460
एस	-1461
न्ट	-1462
काली	-1463
▁पर्यटक	-1464
▁मुद्दा	-1465
▁एवं	-1466
▁यही	-1467
तिहा	-1468
कृत	-1469
ङ्क	-1470
▁त्यसैले	-1471
▁नेपालले	-1472
ढी	-1473
▁परिवर्तन	-1474
▁सम्पर्क	-1475
▁प्रविधि	-1476
▁स्प	-1477
▁वर्षको	-1478
स्क	-1479
▁पैसा	-1480
▁...	-1481
▁फर्	-1482
▁दुवै	-1483
▁अरु	-1484
ल्क	-1485
▁हरेक	-1486
ेज	-1487
▁बाट	-1488
▁सहभागी	-1489
▁चाल	-1490
▁खेला	-1491
▁करिब	-1492
▁भनेको	-1493
or	-1494
▁अझै	-1495
▁निर	-1496
दर	-1497
्ना	-1498
▁आगामी	-1499
▁आग्रह	-1500
▁भित्र	-1501
रिया	-1502
▁त्यस्तै	-1503
लेर	-1504
com	-1505
यम	-1506
▁भो	-1507
▁लिन	-1508
मिका	-1509
▁विद्यु	-1510
▁प्रश्न	-1511
दिन	-1512
ुम्	-1513
▁विश्वास	-1514
मध्ये	-1515
▁भट्ट	-1516
es	-1517
लामा	-1518
▁कर	-1519
▁सात	-1520
तार	-1521
सिया	-1522
▁पर्यटन	-1523
▁चला	-1524
▁आधारमा	-1525
▁भण्ड	-1526
▁२१	-1527
▁तो	-1528
वर	-1529
▁दैनिक	-1530
र्ति	-1531
▁यस्तै	-1532
▁नभएको	-1533
▁निर्देशन	-1534
▁प्रस्तु	-1535
▁२०७४	-1536
▁बिहान	-1537
▁टि	-1538
सिर	-1539
▁केसी	-1540
▁सुन	-1541
ाउनु	-1542
▁संघीय	-1543
म्मे	-1544
तो	-1545
▁आँ	-1546
▁निकाय	-1547
▁हुँदैन	-1548
संघ	-1549
▁यसै	-1550
▁परेका	-1551
िकेट	-1552
ची	-1553
ha	-1554
▁व्यवसाय	-1555
▁प्रकाशित	-1556
▁शनि	-1557
▁सम्भाव	-1558
▁खेलमा	-1559
र्ज	-1560
▁२४	-1561
▁तिम	-1562
भिडियो	-1563
▁याद	-1564
▁दक्ष	-1565
कर्म	-1566
ग्गा	-1567
▁दर	-1568
▁सम्ब	-1569
िकी	-1570
▁धा	-1571
▁बनेको	-1572
▁खबर	-1573
▁समुदाय	-1574
▁असार	-1575
▁एन	-1576
▁भनाइ	-1577
▁उनलाई	-1578
▁स्थानमा	-1579
▁मंगल	-1580
▁देउवा	-1581
▁बिक	-1582
तिर	-1583
▁गृह	-1584
क्क	-1585
▁गर्दछ	-1586
▁यस्ता	-1587
▁सोमबार	-1588
▁दाहाल	-1589
संग	-1590
▁प्रया	-1591
वेदन	-1592
▁सम्झौता	-1593
▁पर्छ	-1594
▁घाइ	-1595
▁।’	-1596
▁S	-1597
▁बाटो	-1598
कुमार	-1599
▁वितरण	-1600
▁भाषा	-1601
क्का	-1602
▁स्ट	-1603
▁न्यू	-1604
▁यसरी	-1605
पको	-1606
गो	-1607
▁बाँकी	-1608
▁सामान्य	-1609
▁चै	-1610
▁बलि	-1611
यण	-1612
▁प्रेम	-1613
▁त्यसको	-1614
क्षित	-1615
▁यसले	-1616
फो	-1617
▁नारा	-1618
▁201	-1619
उँदै	-1620
▁रहे	-1621
रीको	-1622
▁बुधबार	-1623
▁स्वी	-1624
▁राजधान	-1625
▁सम्मेल	-1626
▁स्रो	-1627
▁त्यही	-1628
▁भाइ	-1629
▁सोच	-1630
▁टु	-1631
▁शुक्रबार	-1632
▁चित	-1633
▁देखिन्छ	-1634
▁माघ	-1635
▁मं	-1636
▁आफ्ना	-1637
▁आफ्नै	-1638
थे	-1639
विद्य	-1640
▁प्रवेश	-1641
▁थाले	-1642
▁ध्यान	-1643
ल्न	-1644
हित्य	-1645
चित	-1646
पक	-1647
विधा	-1648
द्वारा	-1649
▁उम्मेदवार	-1650
▁आइत	-1651
▁मान्छ	-1652
▁मानव	-1653
▁गण	-1654
वान	-1655
ज्य	-1656
्दा	-1657
▁मै	-1658
ल्प	-1659
वासी	-1660
भू	-1661
▁घाइते	-1662
▁आई	-1663
▁बढेको	-1664
गुन	-1665
ियन	-1666
डान	-1667
▁जग्गा	-1668
▁ताल	-1669
▁पदा	-1670
,'	-1671
ैँ	-1672
▁आमा	-1673
▁कै	-1674
प्ता	-1675
▁जिम्मे	-1676
सका	-1677
क्टर	-1678
▁भूमिका	-1679
▁बाहिर	-1680
ङको	-1681
सकेका	-1682
▁दिव	-1683
▁सम्बन्धित	-1684
्युनि	-1685
▁ऋ	-1686
▁त्रि	-1687
हरूमा	-1688
▁थिएन	-1689
▁विस्तार	-1690
णि	-1691
▁झा	-1692
द्धा	-1693
▁एकता	-1694
र्जन	-1695
मको	-1696
ुरुष	-1697
ँदैन	-1698
जित	-1699
▁शै	-1700
▁मना	-1701
िण	-1702
▁सवारी	-1703
▁खाने	-1704
▁पुरा	-1705
आर	-1706
उनु	-1707
▁संयुक्त	-1708
▁अति	-1709
▁बजारमा	-1710
डित	-1711
▁२२	-1712
दू	-1713
▁नेपालका	-1714
▁जेठ	-1715
▁पहिले	-1716
ेता	-1717
▁विचार	-1718
नेट	-1719
▁गति	-1720
▁Nepal	-1721
ँड	-1722
▁टा	-1723
▁व्यापार	-1724
▁प्रण	-1725
▁यात्रा	-1726
▁ब्य	-1727
्ले	-1728
टल	-1729
▁तथ	-1730
सक्ने	-1731
काम	-1732
▁साहित्य	-1733
▁सुधार	-1734
▁केपी	-1735
▁पुर्या	-1736
▁वे	-1737
▁छौं	-1738
▁घट	-1739
▁ओलीले	-1740
▁पराज	-1741
▁फै	-1742
▁दू	-1743
▁खेलाडी	-1744
कमा	-1745
▁एस	-1746
▁फेरि	-1747
नाथ	-1748
▁भद	-1749
▁दी	-1750
▁व्यवसायी	-1751
▁लक्ष्य	-1752
▁कारो	-1753
रामी	-1754
▁गठन	-1755
▁गरिरहेको	-1756
श्चिम	-1757
▁आन्दोलन	-1758
▁News	-1759
▁दृ	-1760
▁पुरुष	-1761
▁संयो	-1762
▁यति	-1763
उँछ	-1764
धु	-1765
▁कम्युनि	-1766
००	-1767
▁सुझा	-1768
▁संश	-1769
▁सहज	-1770
▁त्यसपछि	-1771
किएको	-1772
▁निम्	-1773
हन	-1774
▁[	-1775
▁खान	-1776
ैर	-1777
नाको	-1778
गी	-1779
▁भण्डारी	-1780
▁असोज	-1781
▁जल	-1782
▁यादव	-1783
▁मध्य	-1784
लित	-1785
▁।'	-1786
▁२८	-1787
सान	-1788
▁क्रिकेट	-1789
▁आजको	-1790
पानी	-1791
▁तेस	-1792
▁अमेरिकी	-1793
▁विवाद	-1794
▁भर्	-1795
ंगा	-1796
▁शान्ति	-1797
कार्य	-1798
▁साउन	-1799
▁छोरा	-1800
▁बहु	-1801
▁गि	-1802
▁छैनन्	-1803
रेल	-1804
▁चाहि	-1805
शील	-1806
म्मा	-1807
तावरण	-1808
▁सुविधा	-1809
▁क्षम	-1810
▁पृ	-1811
▁ठाउँमा	-1812
▁आरोप	-1813
कम्प	-1814
▁तत्काल	-1815
▁जिल्लामा	-1816
▁प्रमाण	-1817
▁आइतबार	-1818
▁संक्रमण	-1819
पान	-1820
▁देखा	-1821
▁राई	-1822
▁२७	-1823
▁तेस्रो	-1824
ुरो	-1825
कालीन	-1826
▁सके	-1827
▁नहुने	-1828
ेलि	-1829
▁शुभ	-1830
स्व	-1831
▁औष	-1832
▁भन्छन्	-1833
षण	-1834
▁शनिबार	-1835
▁कार्यान्वयन	-1836
सव	-1837
हेक	-1838
▁भई	-1839
▁चीन	-1840
▁दक्षिण	-1841
▁वातावरण	-1842
▁प्रणाली	-1843
▁संगठ	-1844
▁हात	-1845
▁फेस	-1846
गरपालिका	-1847
en	-1848
▁जन्म	-1849
▁विश्वक	-1850
▁न्याय	-1851
ताका	-1852
भु	-1853
▁सिंह	-1854
▁घरमा	-1855
▁प्रयास	-1856
एम	-1857
▁२३	-1858
कृतिक	-1859
बद्ध	-1860
▁लाई	-1861
ढा	-1862
▁गोल	-1863
स्थिति	-1864
विक	-1865
च्चा	-1866
यार	-1867
▁व्यक्त	-1868
▁परीक्षण	-1869
▁जु	-1870
▁आश	-1871
▁यसअघि	-1872
▁अधिकृत	-1873
▁यसलाई	-1874
▁उत्तर	-1875
▁थाल	-1876
▁प्रस्तुत	-1877
▁फरक	-1878
▁तर्फ	-1879
▁जब	-1880
सरमा	-1881
▁खरि	-1882
पण	-1883
▁तुल	-1884
सम्बन्ध	-1885
▁आत्म	-1886
▁साँ	-1887
▁अन्तर	-1888
▁सकिने	-1889
▁सम्मान	-1890
▁वृद्धि	-1891
▁बिही	-1892
विरुद्ध	-1893
▁बीच	-1894
▁सम्भावना	-1895
▁मंसिर	-1896
▁C	-1897
▁शाखा	-1898
▁निजी	-1899
▁|	-1900
स्त्र	-1901
▁A	-1902
▁यसमा	-1903
ीका	-1904
▁मान्छे	-1905
▁सञ्चार	-1906
▁समाधान	-1907
▁हेर	-1908
▁उमेर	-1909
▁बजे	-1910
▁नजिक	-1911
लै	-1912
▁क्लब	-1913
▁२६	-1914
▁कायम	-1915
▁उनका	-1916
▁टिम	-1917
▁सीमा	-1918
▁बताउँ	-1919
▁धन	-1920
बेला	-1921
षद्	-1922
ंका	-1923
▁बच	-1924
▁सर्	-1925
▁पुनः	-1926
स्थल	-1927
सचिव	-1928
▁गठबन्ध	-1929
▁त्यसै	-1930
▁घण्	-1931
्वा	-1932
▁दिनु	-1933
▁निरन्तर	-1934
देश्य	-1935
लाको	-1936
िकित्	-1937
ेश्व	-1938
▁खरिद	-1939
▁गुरुङ	-1940
▁क्षति	-1941
▁टे	-1942
▁सामग्री	-1943
धिवेश	-1944
धे	-1945
▁अवसर	-1946
निर्	-1947
ङमा	-1948
▁हुन्छन्	-1949
▁सुझाव	-1950
▁ढु	-1951
▁२९	-1952
▁औं	-1953
▁बालब	-1954
▁मिति	-1955
दाता	-1956
▁चिनि	-1957
हे	-1958
ालले	-1959
▁माध्य	-1960
▁कमा	-1961
▁ग्रा	-1962
▁कहिले	-1963
▁ज्यान	-1964
▁गरेपछि	-1965
योजना	-1966
▁दर्श	-1967
▁शी	-1968
▁लो	-1969
सलाई	-1970
हल	-1971
▁सर्वो	-1972
▁धर्म	-1973
st	-1974
▁लिने	-1975
▁कारोबार	-1976
▁दाबी	-1977
▁चर्चा	-1978
▁अंक	-1979
बुक	-1980
▁च्या	-1981
▁लाग्ने	-1982
▁रहने	-1983
▁जस्तै	-1984
▁बिरामी	-1985
लाइन	-1986
▁चिकित्	-1987
▁गरिरहेका	-1988
▁जीव	-1989
▁भूकम्प	-1990
▁जसले	-1991
चान	-1992
▁भट्टराई	-1993
▁ऐन	-1994
▁अभाव	-1995
वे	-1996
▁मंगलबार	-1997
▁संरक्षण	-1998
▁M	-1999
▁बैठकमा	-2000
▁H	-2001
▁प्राथ	-2002
▁लिएको	-2003
▁आदि	-2004
▁सभापति	-2005
टको	-2006
▁बिहीबार	-2007
▁स्त	-2008
लर	-2009
ल्य	-2010
▁जनताको	-2011
ल्लाह	-2012
▁फागुन	-2013
▁पर्व	-2014
▁श्रम	-2015
बाही	-2016
धिकरण	-2017
▁अन्त्य	-2018
एकी	-2019
ब्द	-2020
स्कार	-2021
मन	-2022
▁कले	-2023
▁किसान	-2024
▁बरा	-2025
▁प्रदर्शन	-2026
▁बैंकले	-2027
कले	-2028
▁महत्वपूर्ण	-2029
▁ऊ	-2030
▁विवरण	-2031
▁शिक्षक	-2032
▁युव	-2033
▁प्राथमिक	-2034
सम्बन्धी	-2035
▁४०	-2036
▁हस्ता	-2037
▁परीक्षा	-2038
▁बम	-2039
ne	-2040
▁वर्षमा	-2041
मे	-2042
▁वैशाख	-2043
▁बालबालिका	-2044
▁देशको	-2045
श्चित	-2046
म्भीर	-2047
▁भदौ	-2048
खु	-2049
▁खुला	-2050
पित	-2051
▁स्वतन्त्र	-2052
▁मिडिया	-2053
▁एज	-2054
▁माथि	-2055
▁मुख्यमन्त्री	-2056
▁विरोध	-2057
▁बनाएको	-2058
पद	-2059
▁गम्भीर	-2060
▁मिल्	-2061
▁आठ	-2062
▁गुण	-2063
मेल	-2064
▁काँग	-2065
▁क्षेत्रको	-2066
▁प्रशासन	-2067
▁गराउने	-2068
▁लिग	-2069
▁गर्नुपर्छ	-2070
▁सकेको	-2071
▁वर्षीय	-2072
▁सोही	-2073
▁यदि	-2074
▁भन्नुभयो	-2075
▁अवधि	-2076
▁रोजगारी	-2077
▁यौ	-2078
स्पर्	-2079
चालन	-2080
▁कथा	-2081
▁विगत	-2082
मार्ग	-2083
▁तामा	-2084
▁प्राधिकरण	-2085
▁संयोजक	-2086
▁खड्	-2087
▁घण्टा	-2088
क्रमित	-2089
▁बिक्री	-2090
कारा	-2091
स्ती	-2092
▁नाममा	-2093
▁गाडी	-2094
▁जस्ता	-2095
▁कस्तो	-2096
▁अपरा	-2097
ेसम्म	-2098
▁कम्पनीले	-2099
▁पूर्वा	-2100
ापन	-2101
पय	-2102
▁तपाईंको	-2103
▁अहिलेसम्म	-2104
▁काँग्रेस	-2105
▁जोख	-2106
▁पुस्त	-2107
▁कानुन	-2108
▁सहकारी	-2109
भो	-2110
नेपाल	-2111
▁स्पष्ट	-2112
▁/	-2113
▁मन्द	-2114
▁संशोधन	-2115
▁आम	-2116
▁बन्न	-2117
▁घा	-2118
इरा	-2119
▁लाग्छ	-2120
▁प्या	-2121
नू	-2122
▁कृष्ण	-2123
▁गर्छन्	-2124
▁विवाह	-2125
नो	-2126
▁त्यति	-2127
▁साइ	-2128
▁कवि	-2129
फाइ	-2130
▁सम्पूर्ण	-2131
▁देव	-2132
कल	-2133
▁अर्था	-2134
▁आउन	-2135
ौती	-2136
कर्मी	-2137
कृष्ट	-2138
▁प्रतिस्पर्	-2139
▁ऋण	-2140
्नुहोस्	-2141
▁किलो	-2142
्रे	-2143
▁फेसबुक	-2144
▁प्रकार	-2145
▁दिइ	-2146
▁वरि	-2147
▁जिम्मेवारी	-2148
▁द्व	-2149
वाफ	-2150
र्द	-2151
ानि	-2152
ृद्ध	-2153
▁फे	-2154
▁भै	-2155
▁राख्ने	-2156
बाइ	-2157
▁कार्की	-2158
▁शीर्ष	-2159
▁निर्देशक	-2160
▁अवसरमा	-2161
▁कुन	-2162
▁सर्वोच्च	-2163
ाउँदै	-2164
▁कतिपय	-2165
▁जोखिम	-2166
▁सेयर	-2167
▁अग्र	-2168
▁मन्त्रालयले	-2169
▁कलाकार	-2170
▁मधेस	-2171
▁दिनुभयो	-2172
िल्लो	-2173
▁हामीलाई	-2174
▁कुल	-2175
▁बैठकले	-2176
▁राजनीति	-2177
न्तु	-2178
▁थालेको	-2179
▁पोखरेल	-2180
▁विदेशी	-2181
▁लाइ	-2182
शन	-2183
▁साथी	-2184
▁भवन	-2185
रीले	-2186
▁तपाईको	-2187
▁निर्वाचनमा	-2188
▁लगायतका	-2189
▁दिनमा	-2190
▁पार्टीको	-2191
▁संरचना	-2192
▁गर्नुभएको	-2193
▁हिमा	-2194
ीकरण	-2195
मत	-2196
▁अस्पतालमा	-2197
न्ज	-2198
▁सल्लाह	-2199
देशिक	-2200
▁महासंघ	-2201
क्रिय	-2202
ेती	-2203
▁हट	-2204
धिका	-2205
त्तिक	-2206
▁नदि	-2207
▁पेश	-2208
लका	-2209
▁भाइर	-2210
ालि	-2211
▁उद्देश्य	-2212
▁स्रोत	-2213
ad	-2214
▁कमि	-2215
डो	-2216
योजन	-2217
▁R	-2218
▁शरी	-2219
▁भौ	-2220
▁चितवन	-2221
मती	-2222
▁गैर	-2223
रीमा	-2224
▁एकै	-2225
▁जवाफ	-2226
,’	-2227
▁अन्तर्गत	-2228
▁प्रतियोगि	-2229
ष्टा	-2230
ध्या	-2231
▁समितिको	-2232
▁शब्द	-2233
द्र	-2234
र्भ	-2235
▁कोष	-2236
▁उपाध्यक्ष	-2237
पोर्ट	-2238
▁जति	-2239
▁आवश्यकता	-2240
गि	-2241
▁फुटबल	-2242
▁हरा	-2243
▁रन	-2244
▁बन्	-2245
ज्ञा	-2246
▁बताउँछन्	-2247
लग्न	-2248
▁महो	-2249
▁वन	-2250
▁देशमा	-2251
ामु	-2252
ित्व	-2253
▁फिर्ता	-2254
▁याता	-2255
▁राजधानी	-2256
द्द	-2257
▁मतदान	-2258
त्कार	-2259
ंसा	-2260
▁गराउन	-2261
▁नव	-2262
चार्य	-2263
▁बसेको	-2264
ेलु	-2265
▁लागू	-2266
▁भारतको	-2267
▁बन्ने	-2268
कारात्मक	-2269
▁जानु	-2270
▁प्रतिनिधिसभा	-2271
▁संसार	-2272
▁सम्बन्धी	-2273
▁विकेट	-2274
▁कोरिया	-2275
ic	-2276
▁कसै	-2277
धेयक	-2278
▁समन्व	-2279
डमा	-2280
▁आदेश	-2281
▁प्रभावित	-2282
टु	-2283
▁सम्बोधन	-2284
▁लु	-2285
ed	-2286
▁T	-2287
▁इतिहा	-2288
▁समितिले	-2289
▁सञ्ज	-2290
न्तरण	-2291
▁पराजित	-2292
साय	-2293
▁केहि	-2294
काले	-2295
▁सँग	-2296
सद्	-2297
▁निष्	-2298
कोट	-2299
ल्दै	-2300
मेन्ट	-2301
▁ग्राह	-2302
▁कलेज	-2303
▁सुरक्षित	-2304
▁कर्ण	-2305
▁पुस	-2306
▁कक्षा	-2307
▁इन्टर	-2308
▁विधेयक	-2309
▁गुमा	-2310
स्थान	-2311
▁कारबाही	-2312
▁पुग्ने	-2313
▁सुनि	-2314
▁राख्न	-2315
▁पाएको	-2316
▁उत्कृष्ट	-2317
▁हुनुहुन्छ	-2318
हत	-2319
▁प्रत्येक	-2320
▁अख	-2321
ou	-2322
रले	-2323
▁सिफ	-2324
सित	-2325
▁वीर	-2326
दु	-2327
▁धार	-2328
टे	-2329
▁समन्वय	-2330
▁तिन	-2331
▁कानू	-2332
▁क्षमता	-2333
▁कोइरा	-2334
▁पाल	-2335
▁थु	-2336
▁संलग्न	-2337
पुरमा	-2338
▁नारायण	-2339
▁प्रो	-2340
काे	-2341
मले	-2342
▁चुन	-2343
▁वर्ग	-2344
न्त्रिक	-2345
आई	-2346
▁वित्त	-2347
▁पहिचान	-2348
▁लै	-2349
डे	-2350
▁फर्कि	-2351
▁विरा	-2352
न्तरिक	-2353
▁बनाएर	-2354
दानी	-2355
▁सामु	-2356
▁प्रशि	-2357
र्जना	-2358
्वी	-2359
▁पशु	-2360
▁आफूले	-2361
▁भएन	-2362
▁गर्नुभयो	-2363
▁ठा	-2364
▁आकर्ष	-2365
▁चौध	-2366
अन्त	-2367
▁युनि	-2368
▁पूर्वाधार	-2369
▁भइसकेको	-2370
त्रु	-2371
मला	-2372
फ्	-2373
▁प्रतियोगिता	-2374
▁यौन	-2375
▁गर्यो	-2376
it	-2377
तियार	-2378
▁आन्तरिक	-2379
▁चैत	-2380
▁बच्चा	-2381
▁प्रावि	-2382
▁भी	-2383
▁तिनी	-2384
▁२०६	-2385
▁पीडित	-2386
▁समर्थ	-2387
▁अनलाइन	-2388
▁बला	-2389
▁बाध्य	-2390
ष्य	-2391
▁त्यस्तो	-2392
▁राखेर	-2393
▁आफूलाई	-2394
▁पेट	-2395
▁नदी	-2396
▁प्रतिष्ठ	-2397
त्यका	-2398
गमन	-2399
ालको	-2400
▁परिण	-2401
गु	-2402
▁बोर्ड	-2403
▁सिर्जना	-2404
▁मनो	-2405
▁पुष्	-2406
ोरी	-2407
▁सम्बन्धमा	-2408
▁सक्रिय	-2409
▁एका	-2410
▁प्रवक्ता	-2411
▁सजि	-2412
▁भक्त	-2413
▁कार्यकर्ता	-2414
चेत	-2415
▁सिफारि	-2416
छु	-2417
▁निर्वाचित	-2418
▁भ्र	-2419
▁पुगेका	-2420
धीश	-2421
मारी	-2422
त्सव	-2423
रीय	-2424
मार्फत	-2425
▁अनुभव	-2426
बाटै	-2427
▁संस्कृति	-2428
▁लागी	-2429
न्दी	-2430
▁फोन	-2431
तै	-2432
न्दु	-2433
▁गौतम	-2434
▁कम्	-2435
▁६०	-2436
तान्त्रिक	-2437
▁पक्षमा	-2438
▁३१	-2439
ँजी	-2440
▁भाव	-2441
▁संकलन	-2442
▁फोटो	-2443
il	-2444
▁पोष्ट	-2445
न्ता	-2446
टनगर	-2447
▁हरि	-2448
णिज्य	-2449
जर	-2450
▁असर	-2451
क्न	-2452
▁प्रदेशसभा	-2453
चन	-2454
▁वार्ता	-2455
▁मार्फत	-2456
▁बाबु	-2457
▁आफु	-2458
▁रहेछ	-2459
▁२००	-2460
कुद	-2461
▁चरणमा	-2462
▁O	-2463
▁राजा	-2464
▁उपत्यका	-2465
▁औषधि	-2466
▁शेर	-2467
▁भन्न	-2468
▁मन्त्रि	-2469
▁पुरस्कार	-2470
▁2018	-2471
▁डो	-2472
▁सपना	-2473
▁क्षेत्रका	-2474
▁चिनियाँ	-2475
▁ट्रा	-2476
कुल	-2477
ममा	-2478
▁सश	-2479
▁जापान	-2480
▁गरिन्छ	-2481
▁यसका	-2482
▁नपा	-2483
चर	-2484
▁तथ्या	-2485
मका	-2486
थो	-2487
▁नसकेको	-2488
▁सङ्घ	-2489
▁फु	-2490
▁सकेन	-2491
▁कप	-2492
▁उनीहरु	-2493
▁पारि	-2494
याधीश	-2495
१९	-2496
पूर्व	-2497
▁खेलकुद	-2498
यता	-2499
ारमा	-2500
▁पार्टीका	-2501
▁साता	-2502
सँगको	-2503
▁मिला	-2504
▁B	-2505
▁तहको	-2506
श्	-2507
▁एक्	-2508
सिय	-2509
▁प्राविधिक	-2510
▁जस	-2511
▁शहर	-2512
▁थापाले	-2513
▁ठूला	-2514
र्षिक	-2515
▁पाउ	-2516
▁हुनुपर्ने	-2517
▁आयोगले	-2518
▁आँखा	-2519
ोजिम	-2520
जोर	-2521
हरण	-2522
▁आक्रमण	-2523
▁उद्ध	-2524
▁कसैले	-2525
▁मोबाइ	-2526
भिड	-2527
▁यातायात	-2528
वटा	-2529
घाटन	-2530
▁सुन्द	-2531
पर्ने	-2532
▁D	-2533
▁बताइएको	-2534
▁बैंकको	-2535
विद्यालय	-2536
▁जिल्लाको	-2537
▁झापा	-2538
▁वित्तीय	-2539
ल्याण्ड	-2540
▁गुना	-2541
हरा	-2542
▁अत्य	-2543
▁अघ	-2544
किङ	-2545
▁उसले	-2546
▁सानो	-2547
▁ल्याउन	-2548
▁त्यसलाई	-2549
दल	-2550
▁प्रतिवेदन	-2551
▁कार्यकारी	-2552
अन्तर्	-2553
▁छिन्	-2554
थी	-2555
▁वस्तु	-2556
्यास	-2557
▁तस्	-2558
▁सरकारलाई	-2559
सिल	-2560
लीमा	-2561
bar	-2562
ण्डा	-2563
▁तिमी	-2564
▁काममा	-2565
▁कहाँ	-2566
▁यू	-2567
▁श्रेष्ठले	-2568
▁»	-2569
▁खन	-2570
▁तहमा	-2571
▁सेना	-2572
रे	-2573
सू	-2574
ेदेखि	-2575
▁प्रतिस्पर्धा	-2576
सस	-2577
िकल	-2578
रीक्षक	-2579
▁सक्दैन	-2580
लाले	-2581
▁दुर्घटनामा	-2582
▁अरू	-2583
▁हुनुपर्छ	-2584
▁समितिका	-2585
▁संक्रमित	-2586
▁प्रजा	-2587
दय	-2588
▁अल	-2589
▁गरेकी	-2590
न्छु	-2591
▁विरुद्ध	-2592
▁अनुमति	-2593
इँ	-2594
भिजन	-2595
▁वाम	-2596
re	-2597
▁आयोजित	-2598
▁मन्त्रिपरि	-2599
▁K	-2600
▁शाह	-2601
▁नियमित	-2602
▁माया	-2603
खर	-2604
ज्ञान	-2605
▁बढा	-2606
▁बढ्ने	-2607
▁कामदार	-2608
▁समावेश	-2609
तीमा	-2610
▁योगदान	-2611
▁डु	-2612
▁ललित	-2613
▁साधारण	-2614
ेन्सी	-2615
ारो	-2616
▁राति	-2617
शुल्क	-2618
▁विप	-2619
▁आम्	-2620
▁हेर्न	-2621
ेटि	-2622
▁उत्पाद	-2623
क्षर	-2624
▁आवा	-2625
▁छनोट	-2626
देव	-2627
▁मान्य	-2628
▁विद्युत	-2629
नाई	-2630
▁ढि	-2631
▁नति	-2632
▁प्रचार	-2633
habar	-2634
▁भवि	-2635
लेका	-2636
▁तामाङ	-2637
क्षिक	-2638
▁छोरी	-2639
▁वरिष्ठ	-2640
▁कम्युनिष्ट	-2641
▁३५	-2642
▁धु	-2643
जको	-2644
▁कात्तिक	-2645
ल्ट	-2646
▁साँझ	-2647
भी	-2648
लत	-2649
्यू	-2650
टेड	-2651
मात्र	-2652
▁m	-2653
▁सभ	-2654
▁बनाइ	-2655
सल	-2656
▁थिइन्	-2657
▁जम्मा	-2658
▁राखिएको	-2659
▁महानगरपालिका	-2660
▁खास	-2661
▁विजयी	-2662
▁सहा	-2663
अन्तर्गत	-2664
▁सञ्चालनमा	-2665
▁एम	-2666
▁संसदीय	-2667
निर्माण	-2668
▁नौ	-2669
▁बढि	-2670
▁विराटनगर	-2671
चारिक	-2672
▁गुणस्त	-2673
▁पठा	-2674
▁साह	-2675
▁कमजोर	-2676
▁व्यवहार	-2677
वाल	-2678
▁तर्फबाट	-2679
▁नो	-2680
▁परियोजना	-2681
▁अधिकांश	-2682
ारु	-2683
ारम्भ	-2684
ेप	-2685
कन	-2686
▁सध	-2687
▁पुष्प	-2688
लाल	-2689
▁नप	-2690
▁मन्दिर	-2691
ेले	-2692
▁फर्क	-2693
▁जोडि	-2694
▁बताउँदै	-2695
▁आचार्य	-2696
▁पश्चिम	-2697
रुप	-2698
▁वास्त	-2699
▁मज	-2700
▁एउटै	-2701
▁नम	-2702
बो	-2703
▁जहाँ	-2704
▁विश्वविद्यालय	-2705
▁तरि	-2706
नय	-2707
▁आए	-2708
▁पुनर्	-2709
▁मेड	-2710
▁स्थिति	-2711
▁बढ्दै	-2712
▁देशका	-2713
ag	-2714
▁उडान	-2715
▁पारित	-2716
▁सञ्जाल	-2717
▁नियम	-2718
▁विश्वकप	-2719
▁मले	-2720
▁अभ	-2721
▁दिवस	-2722
ण्डकी	-2723
▁चुनौती	-2724
▁राखेको	-2725
▁मधेश	-2726
▁वर्षा	-2727
▁विद्युत्	-2728
▁पाण्ड	-2729
▁नर	-2730
▁अनुमान	-2731
▁कारणले	-2732
le	-2733
▁दिइएको	-2734
▁सुना	-2735
धिवेशन	-2736
▁कर्णाली	-2737
▁रूप	-2738
▁भौतिक	-2739
▁संगीत	-2740
▁तालिम	-2741
▁शैक्षिक	-2742
▁प्रभावकारी	-2743
ाइएको	-2744
▁हुँ	-2745
▁छुट्	-2746
▁त्यसमा	-2747
▁मोटर	-2748
नेर	-2749
▁फोर	-2750
▁चिकित्सक	-2751
▁लगाउने	-2752
▁संसद्	-2753
▁उदा	-2754
▁आम्दानी	-2755
▁रेल	-2756
▁छाड	-2757
▁माध्यम	-2758
▁पदार्थ	-2759
होला	-2760
साब	-2761
▁डाक्टर	-2762
▁गुनासो	-2763
▁प्रत्यक्ष	-2764
▁छौँ	-2765
▁शुल्क	-2766
▁ल्याउने	-2767
▁दिनुहोस्	-2768
▁माइ	-2769
ine	-2770
न्थ्यो	-2771
▁चन्द्र	-2772
▁की	-2773
▁सम्मेलन	-2774
▁नतिजा	-2775
कामना	-2776
नगर	-2777
▁स्थायी	-2778
▁फाइदा	-2779
▁नाका	-2780
र्ख	-2781
▁गएका	-2782
▁भविष्य	-2783
▁विज्ञापन	-2784
▁लाभ	-2785
ेसन	-2786
ःख	-2787
▁ल्याएको	-2788
्ला	-2789
th	-2790
पूर्ति	-2791
▁निम्ति	-2792
िएका	-2793
▁सहर	-2794
▁नसक्ने	-2795
ुट्	-2796
▁कम्पनीको	-2797
▁व्याव	-2798
▁प्रेस	-2799
▁अदालत	-2800
ेलिया	-2801
▁धारणा	-2802
▁सहकार्य	-2803
▁जम	-2804
▁।”	-2805
▁बलात्कार	-2806
▁उद्घाटन	-2807
▁समृद्धि	-2808
▁बराबर	-2809
िमिर	-2810
ामुख	-2811
लीको	-2812
एल	-2813
▁कोही	-2814
▁घु	-2815
▁कठ	-2816
पे	-2817
▁सालमा	-2818
र्ब	-2819
क्य	-2820
वाट	-2821
▁उपभो	-2822
कर	-2823
▁किसि	-2824
▁रंग	-2825
▁जरु	-2826
▁चर्च	-2827
▁ज्ञान	-2828
तिको	-2829
ल्यै	-2830
तः	-2831
▁हाम्रा	-2832
▁जनक	-2833
▁जरुरी	-2834
ित्त	-2835
टाइ	-2836
▁उनीहरू	-2837
पथ	-2838
▁बनाउ	-2839
▁स्वागत	-2840
▁हेर्नु	-2841
क्ने	-2842
साधारण	-2843
▁हक	-2844
▁नभए	-2845
लिएको	-2846
▁प्रतिबद्ध	-2847
▁वाणिज्य	-2848
▁on	-2849
▁भनिएको	-2850
▁कालो	-2851
),	-2852
▁गलत	-2853
▁तत्कालीन	-2854
▁उपयोग	-2855
▁गरिएका	-2856
▁खण्ड	-2857
▁मध्ये	-2858
▁दृष्टि	-2859
▁ग्राहक	-2860
ेली	-2861
▁उनीहरुले	-2862
▁सहभागिता	-2863
▁आप	-2864
्याल	-2865
▁सत्य	-2866
ढे	-2867
▁आशा	-2868
▁नाय	-2869
किस्ता	-2870
▁बद	-2871
▁पहा	-2872
▁मिटर	-2873
ेश्वर	-2874
▁काठमाण्ड	-2875
▁अंग	-2876
र्मिक	-2877
▁उहाँको	-2878
▁पाठ	-2879
७४	-2880
▁वैदेशिक	-2881
▁दशम	-2882
▁हालसम्म	-2883
▁दलित	-2884
▁मिनेट	-2885
▁शिव	-2886
▁३२	-2887
▁विज्ञान	-2888
▁सम्भव	-2889
▁साउ	-2890
▁अभिने	-2891
▁ब्रा	-2892
प्रधान	-2893
▁बीमा	-2894
▁इला	-2895
▁मैदान	-2896
▁क्रिया	-2897
▁स्थित	-2898
▁बढाउन	-2899
▁बलियो	-2900
म्परा	-2901
▁दुःख	-2902
▁सकारात्मक	-2903
▁पहिरो	-2904
▁नेतृत्वको	-2905
नीय	-2906
▁लाग्	-2907
▁बुट	-2908
सीको	-2909
धानिक	-2910
यल	-2911
ent	-2912
▁परिणाम	-2913
रान	-2914
▁जिल्लाका	-2915
मूल	-2916
▁रोक	-2917
ामा	-2918
ष्टाचार	-2919
▁भनी	-2920
▁कमिटी	-2921
▁गए	-2922
▁जाग	-2923
▁टेलि	-2924
▁बंग	-2925
▁घिमिर	-2926
▁छान	-2927
▁राहत	-2928
हरुका	-2929
।'	-2930
न्टर	-2931
▁पहल	-2932
वाई	-2933
नेको	-2934
▁न्यु	-2935
त्न	-2936
कृया	-2937
क्ट	-2938
▁फेला	-2939
▁दुख	-2940
▁प्रहरीको	-2941
▁सरो	-2942
▁सत्ता	-2943
▁कोभिड	-2944
ाउँदा	-2945
▁महोत्सव	-2946
ताले	-2947
▁है	-2948
ेदार	-2949
▁स्थापित	-2950
▁श्रीमती	-2951
▁सुन्दर	-2952
▁प्रहार	-2953
▁सुख	-2954
▁संगठन	-2955
▁राशि	-2956
▁साधन	-2957
▁होटल	-2958
▁दलका	-2959
▁परम्परा	-2960
am	-2961
▁मोदी	-2962
शक्ति	-2963
हण	-2964
यमा	-2965
▁पे	-2966
▁बनेका	-2967
▁प्रदेशको	-2968
▁अर्का	-2969
▁पौडेलले	-2970
▁स्वदेश	-2971
▁७०	-2972
पुरको	-2973
▁उपम	-2974
▁यात्रु	-2975
श्वर	-2976
▁आर	-2977
▁कार्यक्रमको	-2978
चक	-2979
▁सचेत	-2980
▁सबैको	-2981
ंगो	-2982
▁अनुदान	-2983
स्कृतिक	-2984
▁ट्या	-2985
▁अधिकारीले	-2986
▁वार्षिक	-2987
▁कार्यालयमा	-2988
कला	-2989
▁मोबाइल	-2990
यौं	-2991
▁खोप	-2992
▁प्रदेशमा	-2993
▁पाएका	-2994
▁पत्रिका	-2995
▁सौ	-2996
▁पुस्तक	-2997
णी	-2998
▁आवाज	-2999
्रु	-3000
ृत्ति	-3001
ौला	-3002
सला	-3003
मिटर	-3004
▁कडा	-3005
▁p	-3006
▁पाउन	-3007
ज्	-3008
▁टोलीले	-3009
▁काग	-3010
▁भन्छ	-3011
▁स्या	-3012
▁एयर	-3013
एफ	-3014
▁सम्पत्ति	-3015
▁वेब	-3016
साथ	-3017
▁थिएँ	-3018
वली	-3019
▁पूजा	-3020
▁ब्	-3021
▁भर्ना	-3022
पचारिक	-3023
बाहेक	-3024
▁अहिलेको	-3025
▁पुल	-3026
पुग	-3027
▁स्म	-3028
▁गर्नेछ	-3029
▁कार्यालयले	-3030
▁खाना	-3031
▁अपराध	-3032
▁भएपनि	-3033
▁सन्दर्भ	-3034
▁अपे	-3035
र्सि	-3036
▁चुना	-3037
▁डलर	-3038
▁पुष्टि	-3039
खो	-3040
▁गर्नका	-3041
▁बन्दै	-3042
विन	-3043
▁अनुगमन	-3044
ेन्स	-3045
▁विनि	-3046
ाउँछ	-3047
दायिक	-3048
▁रमा	-3049
ङ्गा	-3050
▁बेच	-3051
▁३३	-3052
▁प्रतिष्ठान	-3053
आइ	-3054
लादेश	-3055
▁बह	-3056
▁गायक	-3057
ीया	-3058
ल्ड	-3059
गढ	-3060
▁टाइ	-3061
र्नु	-3062
ay	-3063
▁गतिविधि	-3064
▁जुट	-3065
▁कहि	-3066
थम	-3067
▁भनेका	-3068
▁पाइन्छ	-3069
▁भरत	-3070
▁विमानस्थल	-3071
▁बसेर	-3072
पयोग	-3073
▁बोक	-3074
▁शव	-3075
▁समान	-3076
▁सन्देश	-3077
▁बल	-3078
▁होस्	-3079
▁साना	-3080
▁नेतृत्वमा	-3081
▁भारतमा	-3082
▁सिफारिस	-3083
▁पदाधिका	-3084
▁नियन्त्रणमा	-3085
▁E	-3086
विद्यु	-3087
▁दबा	-3088
▁दिएर	-3089
▁बाग	-3090
▁शेरबहादुर	-3091
▁सबैलाई	-3092
देवी	-3093
▁भोलि	-3094
दारी	-3095
्रै	-3096
▁भे	-3097
कुर	-3098
▁लागेका	-3099
▁विकल्प	-3100
▁निर्माणको	-3101
समि	-3102
▁रोजगार	-3103
▁पृथ	-3104
▁कविता	-3105
▁पाकिस्ता	-3106
▁दिँदै	-3107
▁बोला	-3108
वाही	-3109
िन्	-3110
line	-3111
▁)	-3112
▁तरकारी	-3113
त्ती	-3114
▁पुरानो	-3115
▁जेल	-3116
▁लाग्यो	-3117
तक	-3118
गढी	-3119
▁निगम	-3120
▁सन्त	-3121
▁ठे	-3122
▁छोड	-3123
▁धार्मिक	-3124
डामा	-3125
▁उनीहरुको	-3126
▁आलो	-3127
ालो	-3128
▁दलको	-3129
▁हिमाल	-3130
▁क्रा	-3131
▁महिनामा	-3132
ch	-3133
▁गोर	-3134
▁कल	-3135
पदण्ड	-3136
ेलिक	-3137
▁सक्छन्	-3138
▁हिंसा	-3139
▁मार्ग	-3140
▁उसको	-3141
▁खड्का	-3142
▁साझा	-3143
िने	-3144
▁मेडिकल	-3145
▁रण	-3146
▁कर्जा	-3147
▁महसु	-3148
षद	-3149
▁अर्थात्	-3150
▁मेला	-3151
▁कान्ति	-3152
▁ट्रम्प	-3153
एक	-3154
▁युरो	-3155
ानु	-3156
दम	-3157
▁नब	-3158
रुपमा	-3159
▁मापदण्ड	-3160
▁वर्त	-3161
▁महिलाको	-3162
▁समाजवादी	-3163
▁२०७३	-3164
▁उपभोक्ता	-3165
▁गोली	-3166
कड	-3167
ur	-3168
▁प्रारम्भ	-3169
दन	-3170
ग्रा	-3171
▁नगर्ने	-3172
▁भुक्ता	-3173
घाट	-3174
सम्मको	-3175
▁दशमलव	-3176
▁बुद्ध	-3177
▁सजा	-3178
वार्ड	-3179
▁जाँदा	-3180
▁मलेसिया	-3181
१०	-3182
▁बहादुर	-3183
▁सर्वसाधारण	-3184
▁८०	-3185
▁गरियो	-3186
▁आयात	-3187
▁पहु	-3188
र्माले	-3189
▁जनताले	-3190
▁मगर	-3191
▁मान्यता	-3192
▁खानेपानी	-3193
▁भ्रष्टाचार	-3194
लुङ	-3195
▁खेती	-3196
▁काठमाडौंमा	-3197
▁लक्ष्	-3198
▁दोहो	-3199
वार्ता	-3200
त्तै	-3201
▁प्रसार	-3202
▁भूमि	-3203
▁राजी	-3204
▁सही	-3205
▁सामुदायिक	-3206
धुनिक	-3207
▁अध्या	-3208
▁I	-3209
▁कुरामा	-3210
▁इच्छ	-3211
तिकै	-3212
▁कांग्रेसका	-3213
फी	-3214
तरा	-3215
▁अभिनय	-3216
▁आयोजक	-3217
▁प्रग	-3218
कारि	-3219
फिक	-3220
आफ	-3221
▁ब्र	-3222
ik	-3223
तह	-3224
▁बेलायत	-3225
▁साढे	-3226
▁सिद्धा	-3227
',	-3228
▁पाए	-3229
▁मतदाता	-3230
▁अघिल्लो	-3231
▁जलविद्यु	-3232
▁विधि	-3233
▁लड	-3234
▁नस	-3235
बीचको	-3236
▁चर्चित	-3237
▁विकासका	-3238
व्र	-3239
▁उपाधि	-3240
जस्तो	-3241
▁पढ्नुहोस्	-3242
▁नियुक्त	-3243
▁दाय	-3244
▁पारेको	-3245
▁शुभकामना	-3246
कानी	-3247
▁विज्ञप्	-3248
▁जग	-3249
▁भनिन्	-3250
▁पर्या	-3251
गञ्ज	-3252
▁समेट	-3253
▁लोकतान्त्रिक	-3254
▁बढ्न	-3255
बिन	-3256
▁हेर्दा	-3257
▁गएर	-3258
▁भनाई	-3259
▁पास	-3260
▁बमोजिम	-3261
।’	-3262
▁फल	-3263
पश्चिम	-3264
▁आफैं	-3265
▁जनालाई	-3266
▁विश्ले	-3267
▁खुसी	-3268
▁तराई	-3269
ञ्चन	-3270
▁मेगा	-3271
▁कुमार	-3272
▁हिसाब	-3273
मार्ट	-3274
▁गल्	-3275
▁लगाउन	-3276
▁न्यून	-3277
▁बढाउने	-3278
▁आवेद	-3279
▁हेर्ने	-3280
▁४५	-3281
▁सफलता	-3282
▁मोड	-3283
▁टिक	-3284
▁चासो	-3285
ीकृत	-3286
स्ट्र	-3287
धव	-3288
▁लामा	-3289
▁सर्वा	-3290
ियर	-3291
▁बढ्	-3292
वधान	-3293
▁लिएका	-3294
▁हिजो	-3295
▁नगद	-3296
▁युद्ध	-3297
ष्णु	-3298
▁कार्यरत	-3299
टिङ	-3300
’,	-3301
जस्ता	-3302
ome	-3303
▁मन्त्रिपरिषद्	-3304
क्रो	-3305
▁मन्त्रालयका	-3306
रोह	-3307
▁भर	-3308
▁ढा	-3309
कमल	-3310
▁पहुँच	-3311
▁निर्धारण	-3312
▁अनुरोध	-3313
▁भारतले	-3314
ल्ल	-3315
र्ती	-3316
▁चयन	-3317
▁केन्द्रका	-3318
▁बाहेक	-3319
▁चुनावी	-3320
▁आन्दोल	-3321
▁छिम	-3322
नेटमा	-3323
▁अपेक्षा	-3324
ोका	-3325
कूल	-3326
भे	-3327
▁चित्र	-3328
▁अग	-3329
▁मोर	-3330
▁२०१८	-3331
▁वर्षीया	-3332
▁अर्थतन्त्र	-3333
द्र्	-3334
▁व्यक्तिगत	-3335
....	-3336
▁उद्धार	-3337
▁ऊर्जा	-3338
▁यता	-3339
▁थालेका	-3340
▁प्रतियोगितामा	-3341
▁पार्ने	-3342
▁दिउँ	-3343
७५	-3344
तिहासिक	-3345
▁२०७७	-3346
▁थपि	-3347
शाली	-3348
पक्षी	-3349
वनी	-3350
▁ठु	-3351
▁ओलीको	-3352
चन्द्र	-3353
▁वर्तमान	-3354
पनको	-3355
▁सदर	-3356
हरूका	-3357
▁लगाएको	-3358
▁इतिहास	-3359
▁निश्चित	-3360
▁आउँछ	-3361
▁रिपोर्ट	-3362
▁सचिवालय	-3363
▁घरेलु	-3364
▁हित	-3365
▁उदाहरण	-3366
▁मुलुकको	-3367
फि	-3368
▁हासिल	-3369
▁टिप्	-3370
▁कोठा	-3371
▁बैशाख	-3372
बन्दी	-3373
▁क्रान्ति	-3374
▁अवधिमा	-3375
वात	-3376
▁लोकतन्त्र	-3377
00	-3378
▁परिच	-3379
▁मनोर	-3380
▁कहिल्यै	-3381
▁बर्	-3382
सकेपछि	-3383
is	-3384
▁कानून	-3385
▁सबैले	-3386
मिला	-3387
▁चिन्ता	-3388
▁J	-3389
▁वर्षदेखि	-3390
न्तव्य	-3391
▁अपना	-3392
▁क्याम्प	-3393
▁गठबन्धन	-3394
▁दिल्	-3395
▁जात	-3396
▁राउ	-3397
▁निर्माणका	-3398
▁परम	-3399
घु	-3400
ion	-3401
▁s	-3402
▁बताएको	-3403
गरमा	-3404
▁सामान	-3405
▁समर्थन	-3406
ेशन	-3407
▁महासचिव	-3408
डिङ	-3409
▁सडकमा	-3410
▁दोष	-3411
▁नहुँदा	-3412
हारी	-3413
कलाई	-3414
▁उपस्थिति	-3415
▁अदालतले	-3416
न्धु	-3417
▁पुष्पकमल	-3418
भने	-3419
▁उपकरण	-3420
▁कुराकानी	-3421
▁गराएको	-3422
श्र	-3423
▁पुग्न	-3424
प्रा	-3425
▁फ्रा	-3426
▁भुक्तानी	-3427
स्को	-3428
▁सभामुख	-3429
▁निः	-3430
▁भेला	-3431
▁3	-3432
वाला	-3433
जुरी	-3434
▁राख्	-3435
▁मेल	-3436
लगायतका	-3437
▁कट	-3438
▁उनीहरूले	-3439
▁किश	-3440
▁सशस्त्र	-3441
▁नेपाललाई	-3442
यको	-3443
▁मोर्चा	-3444
प्रिय	-3445
▁उपयुक्त	-3446
▁राजदू	-3447
नन्	-3448
▁पृष्ठ	-3449
▁जनप्रति	-3450
हाज	-3451
म्बा	-3452
▁ढकाल	-3453
▁प्रतिबद्धता	-3454
▁केन्द्रित	-3455
हीन	-3456
▁कार्तिक	-3457
▁गज	-3458
▁महत्	-3459
हुँ	-3460
▁संचालन	-3461
▁F	-3462
▁चेता	-3463
▁निधन	-3464
▁हाइ	-3465
▁बालिका	-3466
▁किलोमिटर	-3467
ज्ञानिक	-3468
ेमा	-3469
माओवादी	-3470
द्रा	-3471
▁अवि	-3472
▁दिनको	-3473
▁हस्तान्तरण	-3474
लक	-3475
हाम	-3476
▁कोइराला	-3477
क्सि	-3478
▁खि	-3479
▁चरणको	-3480
▁प्रथम	-3481
▁आएर	-3482
▁नेपालीको	-3483
खेल	-3484
▁अन्	-3485
▁गरिनेछ	-3486
▁धन्य	-3487
▁प्रदेशका	-3488
▁व्यावसाय	-3489
▁माधव	-3490
▁त्यसो	-3491
ियम	-3492
▁सूर्य	-3493
▁उनीहरूको	-3494
▁एमालेका	-3495
▁खारे	-3496
ठी	-3497
▁अवार्ड	-3498
जिनि	-3499
विध	-3500
▁बस्न	-3501
▁अने	-3502
▁ऐतिहासिक	-3503
ेर्	-3504
▁२०७२	-3505
स्टर	-3506
▁मुलुकमा	-3507
▁त्यसका	-3508
▁सोध	-3509
ing	-3510
▁मौसम	-3511
▁Home	-3512
्रोल	-3513
▁एजेन्सी	-3514
क्कै	-3515
▁व्यक्तिको	-3516
▁त्यसैगरी	-3517
▁विद्यालयमा	-3518
▁अधि	-3519
▁कांग्रेसले	-3520
सक्दा	-3521
▁सजिलो	-3522
▁बाढी	-3523
▁उपस्थित	-3524
▁संघर्ष	-3525
▁च्याम्प	-3526
▁गरिदि	-3527
▁दिउँसो	-3528
▁अत्यन्त	-3529
प्रधानमन्त्री	-3530
ङले	-3531
▁मानसिक	-3532
▁भत्	-3533
▁मेयर	-3534
▁गर्नुहु	-3535
▁पार्न	-3536
ियो	-3537
▁सञ्चालक	-3538
वार्य	-3539
▁प्राकृतिक	-3540
▁चेतावनी	-3541
▁लुम्	-3542
▁विद्यार्थ	-3543
यनमा	-3544
▁मोटरसाइ	-3545
ment	-3546
र्का	-3547
▁भग	-3548
▁फाइन	-3549
▁सरोकार	-3550
▁देउवाले	-3551
▁डिज	-3552
▁भएकोले	-3553
ण्डै	-3554
▁शर्माले	-3555
▁सम्पाद	-3556
▁यथा	-3557
▁गृहमन्त्री	-3558
▁सरकारका	-3559
न्दे	-3560
नित	-3561
▁पार्टीले	-3562
▁अनिवार्य	-3563
▁इज	-3564
▁हस्ताक्षर	-3565
भरि	-3566
▁बुझा	-3567
रामा	-3568
▁प्राय	-3569
बिनी	-3570
मेश	-3571
▁तथ्य	-3572
▁सै	-3573
परेको	-3574
▁कञ्चन	-3575
▁सिट	-3576
▁चढ	-3577
▁यद्य	-3578
▁हेट	-3579
▁शाही	-3580
▁कैला	-3581
▁गतेदेखि	-3582
न्सर	-3583
मिटेड	-3584
▁दर्जन	-3585
▁समृद्ध	-3586
▁पछा	-3587
स्की	-3588
लिज	-3589
भाइ	-3590
▁दबाब	-3591
▁थुप्र	-3592
▁२०५	-3593
▁समग्र	-3594
▁कम्युनिस्ट	-3595
▁कान्तिपुर	-3596
▁आवेदन	-3597
▁अख्	-3598
भुवन	-3599
कट	-3600
▁९०	-3601
कारण	-3602
▁उचित	-3603
ट्टा	-3604
▁।"	-3605
▁छिमेकी	-3606
▁पत्ता	-3607
▁सप्त	-3608
▁गणतन्त्र	-3609
▁सक्नुहुन्छ	-3610
▁Re	-3611
▁परिषद्	-3612
▁प्रचण्डले	-3613
▁झण्डै	-3614
विन्द	-3615
▁मर्म	-3616
▁शरीर	-3617
होर	-3618
▁एश	-3619
▁जाँच	-3620
▁वेबसाइ	-3621
व्या	-3622
▁जसमा	-3623
▁नभई	-3624
▁परिचय	-3625
▁काठमाडौ	-3626
▁हिँड	-3627
▁इट	-3628
▁आयोजनामा	-3629
▁पदाधिकारी	-3630
▁सम्मेलनमा	-3631
तालाई	-3632
ore	-3633
▁एकीकृत	-3634
▁संचाल	-3635
▁औपचारिक	-3636
▁हुन्थ्यो	-3637
▁प्रकाशन	-3638
भूत	-3639
▁देशभर	-3640
▁रेडियो	-3641
▁प्रगति	-3642
▁शो	-3643
ञ्जन	-3644
नन्द	-3645
▁पर्यटकीय	-3646
▁उपमहान	-3647
ठो	-3648
▁विजय	-3649
▁चीनको	-3650
▁चौधरी	-3651
▁कानुनी	-3652
▁विभागले	-3653
वैधानिक	-3654
क्सी	-3655
▁समाजमा	-3656
▁पञ्च	-3657
▁२०७६	-3658
▁गण्डकी	-3659
▁नगरी	-3660
किने	-3661
▁साझ	-3662
▁बराबरको	-3663
बे	-3664
▁अर्थमन्त्री	-3665
▁हैन	-3666
▁आफन्त	-3667
▁आफै	-3668
▁त्रिभुवन	-3669
▁दस	-3670
आरएन	-3671
…]	-3672
▁महसुस	-3673
▁राजीनामा	-3674
▁भोज	-3675
op	-3676
▁ज्या	-3677
▁उपचारका	-3678
▁.	-3679
▁सिका	-3680
औं	-3681
▁लामि	-3682
लम्ब	-3683
सहितको	-3684
▁लिमिटेड	-3685
▁अम	-3686
▁तथ्यांक	-3687
▁आधारित	-3688
क्षेप	-3689
▁त्यसले	-3690
गण	-3691
बारी	-3692
सेवा	-3693
▁कतै	-3694
▁७५	-3695
▁L	-3696
▁गरिसकेको	-3697
▁छिटो	-3698
▁हेर्नुहोस्	-3699
▁नागरिकता	-3700
▁कमी	-3701
सिंह	-3702
म्बु	-3703
▁विमानस्थ	-3704
वडा	-3705
चौ	-3706
▁अत्या	-3707
▁अर्ज	-3708
▁उत्सा	-3709
▁भोट	-3710
सक्छ	-3711
उड	-3712
▁धान	-3713
▁उपाय	-3714
७३	-3715
▁खाता	-3716
ंकन	-3717
▁बंगलादेश	-3718
▁प्राथमिकता	-3719
वाइ	-3720
▁नआ	-3721
ारायण	-3722
▁सदरमु	-3723
वनमा	-3724
संख्या	-3725
▁बिना	-3726
▁लुम्बिनी	-3727
▁ते	-3728
व्यक्ति	-3729
▁दुबै	-3730
▁युवती	-3731
▁आउँ	-3732
▁बिदा	-3733
▁लामिछा	-3734
▁नभएका	-3735
▁बिज	-3736
__	-3737
िमा	-3738
नीति	-3739
▁मिलेर	-3740
▁गाउँमा	-3741
▁अष्ट्र	-3742
▁पुँजी	-3743
▁काउ	-3744
▁निःशुल्क	-3745
▁विविध	-3746
िल	-3747
▁अन्न	-3748
▁उम्मेदवारी	-3749
▁सार	-3750
▁गाँ	-3751
▁तीव्र	-3752
▁अगाडी	-3753
▁यादवले	-3754
▁जनप्रतिनिधि	-3755
▁कतार	-3756
▁फूल	-3757
वस्था	-3758
▁आह	-3759
▁एवम्	-3760
▁जनाएका	-3761
▁सिन्धु	-3762
क्रा	-3763
▁क्लिक	-3764
▁झन्	-3765
▁गोरखा	-3766
▁आयोजनाको	-3767
em	-3768
▁मद्द	-3769
▁आधा	-3770
▁चुनावमा	-3771
र्इ	-3772
▁पन्त	-3773
पन्न	-3774
▁थुप्रै	-3775
तावास	-3776
▁विकासको	-3777
फोन	-3778
▁खोजी	-3779
▁लगाएर	-3780
कृष्ण	-3781
▁हप्ता	-3782
▁पदमा	-3783
▁चौथो	-3784
राको	-3785
▁क्षेत्रीय	-3786
▁सुनु	-3787
▁निर्माणमा	-3788
▁प्रतिकृया	-3789
प्रमुख	-3790
▁स्वय	-3791
▁केन्द्रमा	-3792
▁संघका	-3793
▁मिनेटमा	-3794
▁छै	-3795
▁लगानीकर्ता	-3796
▁राजमार्ग	-3797
▁तलब	-3798
▁परिस्थिति	-3799
▁बनाएका	-3800
नीको	-3801
सङ्	-3802
▁परराष्ट्र	-3803
▁सन्दर्भमा	-3804
▁सैनिक	-3805
▁कारवाही	-3806
▁[…]	-3807
▁लकड	-3808
▁देखिएका	-3809
▁कम्तीमा	-3810
ह्रो	-3811
▁सदरमुकाम	-3812
▁रक्त	-3813
▁मेस	-3814
▁बार	-3815
क्षम	-3816
▁समारोह	-3817
▁घो	-3818
news	-3819
शाला	-3820
▁दशक	-3821
▁हार	-3822
▁राजपा	-3823
▁अमेरिकामा	-3824
▁अभिभाव	-3825
दूर	-3826
▁बसेका	-3827
▁चो	-3828
▁भक्तपुर	-3829
▁म्याग्	-3830
▁खुशी	-3831
▁ब्याज	-3832
श्रम	-3833
▁सजाय	-3834
▁चालक	-3835
▁आगला	-3836
im	-3837
पणी	-3838
ङका	-3839
▁तोक	-3840
▁तल	-3841
▁संविधानसभा	-3842
▁सरकारमा	-3843
▁त्यस्ता	-3844
▁ललितपुर	-3845
▁प्रतिनि	-3846
▁तुलनामा	-3847
▁राखेका	-3848
▁प्रधानमन्त्रीको	-3849
▁उजुरी	-3850
▁ढंग	-3851
ँडा	-3852
प्प	-3853
▁चलि	-3854
▁लागु	-3855
▁बौ	-3856
▁जिम्मा	-3857
मावली	-3858
▁जनसंख्या	-3859
▁रासस	-3860
धनको	-3861
▁सांस्कृतिक	-3862
रीका	-3863
▁पोष्टलाई	-3864
▁गावि	-3865
▁पर्याप्त	-3866
▁किनभने	-3867
▁खतरा	-3868
▁—	-3869
▁उठा	-3870
▁शासन	-3871
▁रक्षा	-3872
▁अख्तियार	-3873
ुरू	-3874
▁संवाद	-3875
▁५५	-3876
तिका	-3877
टव	-3878
सीसी	-3879
जनक	-3880
्यता	-3881
▁बुटवल	-3882
▁इन्टरनेट	-3883
▁जय	-3884
लिन	-3885
▁कार्यालयका	-3886
▁लगातार	-3887
ट्या	-3888
ईको	-3889
▁निर्वाचनको	-3890
▁हाँ	-3891
▁प्रकरण	-3892
▁स्मार्ट	-3893
राख	-3894
▁गतेसम्म	-3895
vi	-3896
▁डी	-3897
▁भण्डारीले	-3898
▁न्यायाधीश	-3899
▁जोग	-3900
▁तपाईँ	-3901
बास	-3902
▁भावना	-3903
▁स्वीकार	-3904
▁काठमाण्डौ	-3905
▁जमिन	-3906
▁महेन्द्र	-3907
ail	-3908
▁प्रशिक्षण	-3909
र्खेत	-3910
सुकै	-3911
▁माथ	-3912
▁जनतालाई	-3913
त्सा	-3914
सामा	-3915
▁एसिया	-3916
▁भन्सार	-3917
ीक	-3918
उँदा	-3919
el	-3920
▁जहाज	-3921
भित्रै	-3922
▁व्यावसायिक	-3923
पूर्वक	-3924
▁तपाईंले	-3925
▁सिने	-3926
▁पुगेर	-3927
गन्ज	-3928
▁जनकपुर	-3929
▁अा	-3930
▁प्रतिशतले	-3931
▁चिया	-3932
▁परिचालन	-3933
▁प्रवाह	-3934
गार	-3935
▁स्थग	-3936
▁हालै	-3937
▁दिनुपर्ने	-3938
▁बीचमा	-3939
▁ट्राफिक	-3940
▁खनाल	-3941
▁रोक्न	-3942
▁दिन्छ	-3943
▁झु	-3944
▁निज	-3945
▁आधुनिक	-3946
▁अपा	-3947
३०	-3948
▁दौ	-3949
▁चे	-3950
▁आलोचना	-3951
▁पहिला	-3952
▁३६	-3953
▁महत्त्व	-3954
▁औँ	-3955
▁परे	-3956
▁फैसला	-3957
▁अदालतमा	-3958
▁गोप	-3959
▁पात्र	-3960
शाखा	-3961
▁मू	-3962
▁तिर	-3963
डर	-3964
▁प्ले	-3965
▁यसैगरी	-3966
▁विश्लेषण	-3967
▁धन्यवाद	-3968
ल्यान्ड	-3969
ित्ता	-3970
▁राज्यको	-3971
ङक	-3972
▁नगरपालिकाको	-3973
▁बालुवा	-3974
श्चा	-3975
द्व	-3976
न्देही	-3977
चु	-3978
▁निर्मला	-3979
▁फोरम	-3980
▁भाइरस	-3981
वीर	-3982
▁२०७८	-3983
नाम	-3984
▁खति	-3985
रूप	-3986
▁एकजना	-3987
▁निर्मा	-3988
▁महानगर	-3989
▁आवास	-3990
▁लक्षित	-3991
▁धारा	-3992
▁गयो	-3993
▁कमल	-3994
▁म्यान	-3995
▁जनाले	-3996
▁बैं	-3997
▁खारेज	-3998
▁म्यु	-3999
्वान	-4000
▁तस्क	-4001
▁गर्छु	-4002
▁संघको	-4003
▁दाहालले	-4004
▁सिद्धान्त	-4005
▁राजस्व	-4006
▁तोकिएको	-4007
20	-4008
भारत	-4009
जान	-4010
▁९८	-4011
▁पोस्ट	-4012
of	-4013
▁खेल्ने	-4014
▁सङ्ख्या	-4015
▁खतिवडा	-4016
▁सल	-4017
विर	-4018
▁दम	-4019
युक्ति	-4020
▁केसीले	-4021
रिय	-4022
▁पछ	-4023
दछन्	-4024
▁लोकप्रिय	-4025
▁पढ्न	-4026
▁नाफा	-4027
▁तर्क	-4028
▁संस्थाले	-4029
▁सँगै	-4030
न्थ	-4031
ol	-4032
श्वास	-4033
▁बाह	-4034
स्वा	-4035
ल्पना	-4036
▁a	-4037
▁सब	-4038
▁आरोपमा	-4039
▁अमेरिकाको	-4040
▁विष्णु	-4041
▁एमालेले	-4042
▁तेल	-4043
पत्ता	-4044
▁संकेत	-4045
▁छानबिन	-4046
▁अलि	-4047
▁सेवन	-4048
रिक	-4049
▁वर्षअघि	-4050
▁पेट्रोल	-4051
▁इच्छा	-4052
▁प्रसारण	-4053
▁पर्दछ	-4054
▁जसको	-4055
▁जनशक्ति	-4056
▁On	-4057
▁गरिरह	-4058
▁रचना	-4059
ल्पा	-4060
▁गोविन्द	-4061
▁जान्छ	-4062
प्ले	-4063
▁बहि	-4064
▁विदेशमा	-4065
▁मुक्त	-4066
वेदी	-4067
▁महिनाको	-4068
ोरै	-4069
▁आएपछि	-4070
म्स	-4071
▁पाइएको	-4072
▁हस्त	-4073
नीतिक	-4074
▁एक्स	-4075
▁डिभिजन	-4076
११	-4077
▁गाह्रो	-4078
▁लेखा	-4079
▁बहस	-4080
▁विकासमा	-4081
जे	-4082
▁अनुहार	-4083
▁मुस्	-4084
▁वास्तविक	-4085
▁नियुक्ति	-4086
▁अप्र	-4087
▁भएमा	-4088
▁सूची	-4089
▁अभ्यास	-4090
▁निकट	-4091
वत	-4092
जाने	-4093
▁मनाइ	-4094
▁संवैधानिक	-4095
▁विष्ट	-4096
छिन्	-4097
ईमा	-4098
ra	-4099
▁टी	-4100
▁कांग्रेसको	-4101
▁अर	-4102
▁प्रकृति	-4103
▁प्रवद्र्	-4104
शासन	-4105
▁रगत	-4106
ेर्पा	-4107
▁परा	-4108
▁मण्ड	-4109
▁युरोप	-4110
▁संस्थाको	-4111
▁लाग्न	-4112
इने	-4113
▁भ्या	-4114
ितो	-4115
▁बुझ्न	-4116
ost	-4117
▁पुग्यो	-4118
बिर	-4119
▁चाड	-4120
▁लक्ष्मी	-4121
▁अथ	-4122
▁टेलिक	-4123
्लो	-4124
▁एनआरएन	-4125
▁दै	-4126
यन्त्र	-4127
▁आह्वान	-4128
▁बिष	-4129
▁कामको	-4130
▁पाइने	-4131
▁सहयोगमा	-4132
मल	-4133
▁तपाइँ	-4134
▁बताइन्	-4135
▁खटि	-4136
र्चु	-4137
▁टिप्पणी	-4138
▁मद्दत	-4139
नस	-4140
▁बग	-4141
▁उनीहरुलाई	-4142
▁सुर्खेत	-4143
▁अप्	-4144
▁लिए	-4145
▁नोट	-4146
▁संविधानको	-4147
▁निस्	-4148
▁यसो	-4149
▁यद्यपि	-4150
▁वृ	-4151
▁व्यवस्थित	-4152
▁फ्रान्स	-4153
▁गराइ	-4154
▁सेन्टर	-4155
मय	-4156
निया	-4157
हिक	-4158
▁आयोगको	-4159
परा	-4160
▁केवल	-4161
▁जीवनमा	-4162
▁शेर्पा	-4163
▁गाय	-4164
समिति	-4165
▁आपूर्ति	-4166
▁लामिछाने	-4167
▁0	-4168
▁मित्र	-4169
▁सुवेदी	-4170
▁दुरु	-4171
▁ठो	-4172
तु	-4173
१२	-4174
▁भन्नु	-4175
▁नवल	-4176
▁असफल	-4177
▁नगरपालिकाले	-4178
धिकारिक	-4179
▁प्रतिबन्ध	-4180
▁बौद्ध	-4181
▁टिकट	-4182
▁व्यक्तिले	-4183
▁सम्पादन	-4184
्याम	-4185
प्रपा	-4186
टाले	-4187
▁पछाडि	-4188
▁बिजु	-4189
▁क्यान्सर	-4190
नुपा	-4191
▁राशिफल	-4192
▁बाबुराम	-4193
▁थोरै	-4194
इरहेको	-4195
▁b	-4196
▁न्यौ	-4197
▁वर्षपछि	-4198
▁प्रमाणपत्र	-4199
▁मन्त्रालयको	-4200
▁भट्टराईले	-4201
लीले	-4202
▁तपाईंलाई	-4203
▁देखिने	-4204
▁दिनुहोस	-4205
जस्तै	-4206
▁सम्व	-4207
▁पाठक	-4208
ब्र	-4209
▁द्वन्द	-4210
▁निवास	-4211
▁सम्पादक	-4212
▁विजेता	-4213
▁सूच	-4214
▁ठुलो	-4215
▁समुह	-4216
▁सङ्क	-4217
चो	-4218
▁अर्थात	-4219
फर	-4220
▁कास्की	-4221
घर	-4222
▁भएकी	-4223
लोकन	-4224
▁रिलिज	-4225
▁प्रयोगकर्ता	-4226
न्ह	-4227
▁काट	-4228
▁लाल	-4229
▁हिसाबले	-4230
▁आधिकारिक	-4231
▁क्रि	-4232
▁माछा	-4233
▁प्ला	-4234
▁आस	-4235
▁चाँड	-4236
▁सल्लाहकार	-4237
▁निरा	-4238
▁रेक	-4239
▁पर्न	-4240
▁खर्ब	-4241
▁डर	-4242
▁अष्ट्रेलिया	-4243
न्टा	-4244
▁प्रबन्ध	-4245
▁अग्	-4246
▁भनिन्छ	-4247
वर्ष	-4248
ञ्चल	-4249
▁राजदूत	-4250
▁मानिसको	-4251
ाइन	-4252
▁सहायक	-4253
▁मैदानमा	-4254
▁स्थल	-4255
▁द्वारा	-4256
न्ती	-4257
▁हवाई	-4258
हरी	-4259
▁होट	-4260
▁दावी	-4261
▁गणेश	-4262
नुपातिक	-4263
गरमाथा	-4264
जनको	-4265
▁मिस	-4266
▁मूल्या	-4267
▁प्रजातन्त्र	-4268
▁प्रिम	-4269
▁चैत्र	-4270
▁मौका	-4271
▁नजिकै	-4272
▁विभा	-4273
▁माध्यमबाट	-4274
▁३४	-4275
▁न्यौपा	-4276
▁म्याग्दी	-4277
▁प्रसाद	-4278
▁«	-4279
▁रनको	-4280
जमा	-4281
▁हुँदैछ	-4282
र्को	-4283
▁Nepali	-4284
▁गन्तव्य	-4285
▁कुट	-4286
▁टाढा	-4287
▁पुस्ता	-4288
▁प्रतियोगिताको	-4289
क्कर	-4290
▁उत्पन्न	-4291
▁f	-4292
फाइन	-4293
▁६५	-4294
दिने	-4295
▁व्यक्तिलाई	-4296
वनको	-4297
खित	-4298
पर्छ	-4299
▁तनाव	-4300
▁पर्यो	-4301
र्दै	-4302
▁नुवा	-4303
▁सङ्ग	-4304
▁…	-4305
रिएको	-4306
▁निरन्तरता	-4307
ंकर	-4308
▁तिहार	-4309
▁सुदूर	-4310
▁सफा	-4311
▁वैज्ञानिक	-4312
▁खस	-4313
▁आय	-4314
नाका	-4315
▁सकिएको	-4316
आफ्न	-4317
▁बाहिरी	-4318
▁महाधिवेशन	-4319
▁समी	-4320
▁बनाइएको	-4321
हरुसँग	-4322
▁विधान	-4323
▁महाशाखा	-4324
▁रौ	-4325
▁प्रकारको	-4326
▁राजनीतिमा	-4327
▁ज्ञा	-4328
▁समानुपातिक	-4329
▁मक	-4330
▁जनाइएको	-4331
▁३८	-4332
टिल	-4333
▁Online	-4334
कोण	-4335
▁हङक	-4336
▁दिला	-4337
▁चन्द	-4338
▁महानि	-4339
▁पसल	-4340
▁मधेसी	-4341
▁ओभ	-4342
क्षेत्र	-4343
▁आनन्द	-4344
रुवा	-4345
▁सन्ता	-4346
▁डेढ	-4347
▁एन्	-4348
▁भित्	-4349
▁तहका	-4350
जन्य	-4351
▁मेरा	-4352
▁प्रावधान	-4353
▁चाहिँ	-4354
▁असन्तु	-4355
सीले	-4356
▁तयारीमा	-4357
▁भाडा	-4358
▁तरिका	-4359
and	-4360
▁नभएर	-4361
ईन	-4362
▁देखाएको	-4363
▁बोल्दै	-4364
▁भरतपुर	-4365
▁संस्करण	-4366
▁२०४	-4367
▁सापको	-4368
▁मासु	-4369
षे	-4370
भेद	-4371
गल	-4372
▁गराएका	-4373
टीमा	-4374
▁रिय	-4375
▁खाद्य	-4376
▁राप्रपा	-4377
सिन्दा	-4378
▁सरस	-4379
▁सगरमाथा	-4380
ेमी	-4381
▁अर्य	-4382
▁गुरुङले	-4383
▁४२	-4384
ृति	-4385
▁सीमित	-4386
▁प्रशिक्षक	-4387
▁चाहना	-4388
▁एन्ड	-4389
ेलले	-4390
बाबु	-4391
▁साउदी	-4392
▁l	-4393
▁वर्षे	-4394
ुट्टा	-4395
▁समयदेखि	-4396
▁अच	-4397
▁नाटक	-4398
▁आगलागी	-4399
भार	-4400
युद्ध	-4401
लिङ	-4402
▁पोखरामा	-4403
▁म्युजिक	-4404
लिया	-4405
▁आगो	-4406
रामर्श	-4407
वमा	-4408
र्घ	-4409
▁विना	-4410
▁समुदायको	-4411
▁राजेन्द्र	-4412
नाल्	-4413
▁सञ्चालित	-4414
▁पीडा	-4415
▁मुटु	-4416
फोट	-4417
▁वर्षका	-4418
मूलक	-4419
▁बाँच	-4420
द्योग	-4421
▁बनाए	-4422
▁देख्न	-4423
जसो	-4424
▁बढ्दो	-4425
ड्ने	-4426
सै	-4427
▁ग्या	-4428
▁राणा	-4429
न्यास	-4430
डको	-4431
▁पुनर्निर्माण	-4432
साई	-4433
कहरु	-4434
भग	-4435
क्षी	-4436
र्खा	-4437
ब्य	-4438
▁भीम	-4439
▁कप्ता	-4440
▁व्यापारी	-4441
et	-4442
ber	-4443
▁लघु	-4444
▁उद्देश्यले	-4445
▁उत्र	-4446
दीप	-4447
▁नेप्	-4448
▁मोटरसाइकल	-4449
▁स्थगित	-4450
▁स्कु	-4451
▁कसैलाई	-4452
▁सुनिश्चित	-4453
▁नगरपालिकाका	-4454
▁पृथ्वी	-4455
▁नदिने	-4456
▁बागलुङ	-4457
▁लगाए	-4458
▁खरा	-4459
▁कदम	-4460
▁अस्था	-4461
ब्जा	-4462
▁संसदमा	-4463
▁पशुपति	-4464
▁जसरी	-4465
न्धि	-4466
▁निस्क	-4467
▁खेलको	-4468
सके	-4469
▁प्रतिवेद	-4470
च्या	-4471
▁मञ्च	-4472
प्टर	-4473
▁लागेर	-4474
▁रात	-4475
▁बताउनु	-4476
▁जागिर	-4477
▁४४	-4478
▁बीबी	-4479
▁विस्तृत	-4480
ेखा	-4481
▁अवै	-4482
▁लागिएको	-4483
▁बिस्त	-4484
▁नगरेको	-4485
▁परामर्श	-4486
▁प्रधानमन्त्रीले	-4487
▁भर्खर	-4488
▁जनजा	-4489
▁निष्कर्ष	-4490
लाग	-4491
▁हल	-4492
▁करी	-4493
नीमा	-4494
▁पर्दैन	-4495
▁बुढा	-4496
नीले	-4497
ौट	-4498
व्यापी	-4499
▁वर्षसम्म	-4500
▁सुत्	-4501
▁समयमै	-4502
पात	-4503
▁रोकि	-4504
र्यो	-4505
▁तु	-4506
ाउको	-4507
▁मानिन्छ	-4508
भाविक	-4509
▁हरु	-4510
▁बेपत्ता	-4511
▁३७	-4512
▁ढंगले	-4513
▁पोखरेलले	-4514
जाल	-4515
▁मकवान	-4516
टीको	-4517
▁कसले	-4518
ht	-4519
▁द्वन्द्व	-4520
▁गर्नुहोस	-4521
▁छे	-4522
हत्या	-4523
न्यायाधीश	-4524
▁रमेश	-4525
▁उपमहानगरपालिका	-4526
▁4	-4527
ंख	-4528
▁गुणस्तर	-4529
▁मनोरञ्जन	-4530
▁नक्क	-4531
चे	-4532
▁कार्ड	-4533
▁गाई	-4534
िए	-4535
▁जर्म	-4536
▁२०२	-4537
▁जिम्मेवार	-4538
शेष	-4539
▁बेर	-4540
▁सहयोगी	-4541
▁सिनेमा	-4542
▁निषे	-4543
▁बसो	-4544
▁बिहे	-4545
▁च्याम्पियन	-4546
▁बिच	-4547
▁चालु	-4548
▁भ्रमणमा	-4549
▁सालको	-4550
▁प्रवृत्ति	-4551
▁पत्	-4552
▁थालेपछि	-4553
▁बहुमत	-4554
▁जेष्ठ	-4555
▁निर्वाह	-4556
ँदे	-4557
▁रुपन्देही	-4558
▁चिकित्सा	-4559
हरूसँग	-4560
▁प्रतिनिध	-4561
▁प्रिय	-4562
▁अभिव्यक्ति	-4563
वानी	-4564
वद्ध	-4565
ाउनुपर्ने	-4566
▁हुनसक्छ	-4567
▁कपि	-4568
▁रहेर	-4569
▁चिसो	-4570
▁स्कुल	-4571
ww	-4572
▁एफ	-4573
▁महामारी	-4574
▁यसबाट	-4575
▁सुचना	-4576
▁5	-4577
▁लेखक	-4578
क्सा	-4579
▁मुक्ति	-4580
▁ठेक्का	-4581
▁विनियोजन	-4582
संस्था	-4583
▁बुद्धि	-4584
▁डिजि	-4585
▁लाइन	-4586
▁नागरिकको	-4587
पत्रमा	-4588
▁पत्रकारि	-4589
▁अश	-4590
▁न्यौपाने	-4591
▁व्यापक	-4592
▁दूध	-4593
▁लगाएका	-4594
नेन्द्र	-4595
ेकै	-4596
राइ	-4597
खण्ड	-4598
१५	-4599
▁मल	-4600
▁शाक्य	-4601
ध्यापक	-4602
हामी	-4603
ियाली	-4604
यौँ	-4605
▁स्ना	-4606
as	-4607
▁पाण्डे	-4608
स्तरीय	-4609
▁नरहेको	-4610
▁ध्या	-4611
भिडियोसहित	-4612
बजार	-4613
▁रेकर्ड	-4614
▁खेत	-4615
id	-4616
्वि	-4617
▁एकल	-4618
▁मी	-4619
▁व्यस्त	-4620
▁आउनु	-4621
ak	-4622
परी	-4623
▁बनि	-4624
▁अस्थायी	-4625
▁समूहले	-4626
▁टीका	-4627
▁विभागका	-4628
▁अथवा	-4629
▁पर्दा	-4630
▁गुल्	-4631
▁पुगे	-4632
▁घुम्	-4633
▁इन	-4634
▁Com	-4635
लोड	-4636
▁केन्द्रको	-4637
ूट	-4638
वण	-4639
▁ट्वी	-4640
▁जडान	-4641
▁सृ	-4642
▁पठाउने	-4643
रोधी	-4644
▁दशैं	-4645
▁१००	-4646
▁परिवारका	-4647
▁बेलामा	-4648
▁महिलाले	-4649
▁सकेका	-4650
▁दुरुपयोग	-4651
▁प्रकारका	-4652
कर्षण	-4653
▁श्रमिक	-4654
▁कित्ता	-4655
▁परिवारको	-4656
▁नेताहरु	-4657
▁दीपक	-4658
▁तारि	-4659
▁सुनस	-4660
▁जलविद्युत्	-4661
▁मिश्र	-4662
▁हुनेछन्	-4663
▁बर	-4664
तका	-4665
▁अवरोध	-4666
▁उदय	-4667
▁खुल्ला	-4668
▁बाइ	-4669
▁ग्रहण	-4670
▁२०१७	-4671
नारायण	-4672
ङ्ग्र	-4673
▁समीक्षा	-4674
▁मामिला	-4675
भूति	-4676
▁वायु	-4677
गमा	-4678
ईएको	-4679
▁दिल्ली	-4680
▁G	-4681
▁श्रा	-4682
▁डुब	-4683
▁निर्माता	-4684
▁हुनाले	-4685
▁पुराना	-4686
▁संस्थागत	-4687
▁प्रतिनिधित्व	-4688
▁५१	-4689
▁सम्मा	-4690
▁घरको	-4691
▁व्यवस्थाप	-4692
▁क्षेत्रलाई	-4693
▁अनेक	-4694
▁समितिमा	-4695
▁किम	-4696
चाइ	-4697
एसपी	-4698
▁म्याद	-4699
▁9	-4700
▁बचत	-4701
मण्ड	-4702
▁यहाँका	-4703
▁सामना	-4704
▁कर्मचारीको	-4705
▁प्रारम्भिक	-4706
▁घटनामा	-4707
▁लकडाउन	-4708
▁छोटो	-4709
मण	-4710
▁घिमिरे	-4711
▁पढिएको	-4712
▁मेट	-4713
▁कपडा	-4714
▁कार्यमा	-4715
रिक्त	-4716
▁बैंकका	-4717
▁आफैँ	-4718
▁खोजेको	-4719
▁हतियार	-4720
▁अलग	-4721
▁सदस्यीय	-4722
▁दाजु	-4723
पले	-4724
▁c	-4725
▁खेल्न	-4726
▁महिलालाई	-4727
▁शंका	-4728
▁निवेदन	-4729
▁घटेको	-4730
▁राज्यले	-4731
वट	-4732
▁स्वीकृति	-4733
▁हेर्नुहोस	-4734
▁इन्जिनि	-4735
▁चलाउन	-4736
▁अफग	-4737
▁केन्द्रले	-4738
▁मङ्	-4739
▁जन्मि	-4740
▁ठीक	-4741
▁बित	-4742
▁जोशी	-4743
पोख	-4744
▁नायिका	-4745
▁कार्यालयको	-4746
▁तरिकाले	-4747
▁चीनले	-4748
▁देखियो	-4749
▁काठमाडौंको	-4750
▁भत्ता	-4751
षि	-4752
▁बस्दै	-4753
▁चेत	-4754
ेदारी	-4755
क्सन	-4756
▁कार्यक्रमका	-4757
▁निर्यात	-4758
▁पुर्याउने	-4759
किलो	-4760
▁साथमा	-4761
▁t	-4762
ro	-4763
▁साँच	-4764
▁Khabar	-4765
▁दायित्व	-4766
िनो	-4767
▁बताउनुभएको	-4768
्युटर	-4769
▁शक्तिशाली	-4770
▁मजदुर	-4771
जुर	-4772
▁औद्योग	-4773
ौल	-4774
▁बस्ती	-4775
▁more	-4776
▁कार्यान्वयनमा	-4777
गन	-4778
▁क्य	-4779
▁आइपुग	-4780
▁विधा	-4781
▁सकिनेछ	-4782
▁उसलाई	-4783
▁रेग्	-4784
▁एण्ड	-4785
▁नसक्दा	-4786
▁लगभग	-4787
जात	-4788
▁सत्त	-4789
▁धरान	-4790
▁अतिरिक्त	-4791
▁हातमा	-4792
▁बासिन्दा	-4793
▁छुट्टै	-4794
▁ठेक	-4795
▁धादि	-4796
▁परिवारलाई	-4797
▁इमेल	-4798
▁१९९	-4799
▁क्यान	-4800
▁अभियानमा	-4801
▁गरिन्	-4802
▁ध्याना	-4803
▁बस्नेत	-4804
बम	-4805
▁हुदै	-4806
▁मौलिक	-4807
▁जुम्	-4808
▁पर्ख	-4809
यद	-4810
▁सिमा	-4811
▁स्थानिय	-4812
▁उभि	-4813
▁गल्ती	-4814
कुरा	-4815
▁of	-4816
▁अभिनेत्री	-4817
▁फिल्ममा	-4818
फोटो	-4819
ंगी	-4820
▁सङ्क्रमण	-4821
▁दृश्य	-4822
▁रातो	-4823
▁पठाएको	-4824
ारीरिक	-4825
▁उपलब्धि	-4826
▁एमालेको	-4827
▁सक्षम	-4828
▁होम	-4829
▁Read	-4830
▁बढाएको	-4831
एमाले	-4832
▁अदालतको	-4833
▁४८	-4834
▁मात्रामा	-4835
▁विश्वका	-4836
▁संघले	-4837
▁आकाश	-4838
▁ह्या	-4839
▁रमाइ	-4840
ताब	-4841
▁प्राधिकरणले	-4842
नलाई	-4843
रेको	-4844
▁गौर	-4845
▁आत	-4846
▁बढ्यो	-4847
पिट	-4848
▁तस्बिर	-4849
▁सेत	-4850
▁काभ	-4851
▁दिदी	-4852
▁खेल्	-4853
▁हावा	-4854
▁भारतका	-4855
▁उपरीक्षक	-4856
▁प्रोत्सा	-4857
▁जटिल	-4858
▁बरु	-4859
▁फेरी	-4860
▁सन्तोष	-4861
▁दृष्टिकोण	-4862
शै	-4863
▁धनगढी	-4864
यनको	-4865
▁स्तर	-4866
▁पढाइ	-4867
▁लाभा	-4868
▁सुरुवात	-4869
ess	-4870
हिरो	-4871
▁बिभिन्न	-4872
▁खाली	-4873
▁नवी	-4874
▁इन्स	-4875
▁युए	-4876
▁माथिल्लो	-4877
▁आयु	-4878
▁कठिन	-4879
ort	-4880
गाउँ	-4881
▁स्वार्थ	-4882
लाग्	-4883
मुना	-4884
▁सन्तु	-4885
▁शारीरिक	-4886
▁दूतावास	-4887
▁मासिक	-4888
▁कन्	-4889
▁अबको	-4890
झदारी	-4891
▁ध्यानाकर्षण	-4892
▁आधारभूत	-4893
ul	-4894
▁सिक्	-4895
▁प्रधानन्यायाधीश	-4896
▁राईले	-4897
द्रो	-4898
ट्स	-4899
▁स्वस्थ	-4900
▁अधिवेशन	-4901
▁बिता	-4902
▁टाउको	-4903
▁विगतमा	-4904
▁किसिमको	-4905
▁मिल्ने	-4906
ीलाई	-4907
▁अल्	-4908
▁आकार	-4909
▁नक्कली	-4910
▁सिक	-4911
▁ठक्कर	-4912
तीको	-4913
काउने	-4914
▁पालना	-4915
▁सहि	-4916
▁पाल्	-4917
पाटी	-4918
▁सामाग्री	-4919
▁गर्भ	-4920
▁प्रिमियर	-4921
▁चलन	-4922
र्दा	-4923
▁भइरहेका	-4924
७६	-4925
▁अफि	-4926
▁संख्यामा	-4927
▁सर्वाधिक	-4928
▁धनी	-4929
ग्राही	-4930
▁पानीको	-4931
लिस	-4932
भोग	-4933
ईं	-4934
▁आयोगका	-4935
▁यि	-4936
ct	-4937
▁मेगावाट	-4938
न्नु	-4939
▁वेबसाइट	-4940
▁रह्यो	-4941
धै	-4942
इको	-4943
▁टेलिभिजन	-4944
▁३९	-4945
▁समाजको	-4946
्रेजी	-4947
▁बाँड	-4948
धारणा	-4949
▁एकीकरण	-4950
रिङ	-4951
▁नागरिकलाई	-4952
▁केसीको	-4953
मन्त्र	-4954
▁कसैको	-4955
▁राष्ट्रियसभा	-4956
▁बेलु	-4957
▁सधैं	-4958
्रिक	-4959
काठमा	-4960
▁स्मरण	-4961
▁राखि	-4962
▁हृ	-4963
▁माल	-4964
१८	-4965
▁सुदूरपश्चिम	-4966
▁लागत	-4967
▁चलाउने	-4968
ँस	-4969
▁पारेर	-4970
▁डिजिटल	-4971
▁आकर्षण	-4972
▁खासै	-4973
ानै	-4974
टार	-4975
रिवा	-4976
▁अस्ट्र	-4977
▁घटनाको	-4978
▁औद्योगिक	-4979
सीमा	-4980
▁खुट्टा	-4981
▁यहाँको	-4982
▁सेनाले	-4983
▁क्रियाकला	-4984
प्लव	-4985
▁ठहर	-4986
▁प्रष्ट	-4987
▁नपाउने	-4988
▁कम्प्युटर	-4989
▁डट	-4990
▁आया	-4991
▁पुग्	-4992
ेलको	-4993
▁घट्	-4994
▁बलिउड	-4995
▁महत्त्वपूर्ण	-4996
न्डै	-4997
त्वमा	-4998
▁धनु	-4999
दृ	-5000
▁४३	-5001
▁वडाध्यक्ष	-5002
ठन	-5003
▁लक्षण	-5004
▁भोग	-5005
न्सको	-5006
▁छनौट	-5007
▁बोकेर	-5008
▁बुबा	-5009
▁बिहि	-5010
▁विषयलाई	-5011
▁सरल	-5012
▁प्रेर	-5013
▁नामक	-5014
▁धर	-5015
▁बिजुली	-5016
वृद्धि	-5017
▁मनमा	-5018
▁इन्द्र	-5019
▁करीब	-5020
ia	-5021
▁ज्ञानेन्द्र	-5022
ालका	-5023
▁सेनाको	-5024
श्रो	-5025
▁संग्रह	-5026
▁परिषद	-5027
▁नरेन्द्र	-5028
▁मुद्दामा	-5029
▁मसा	-5030
▁किनकि	-5031
▁विघ	-5032
▁दिशा	-5033
▁पहाडी	-5034
▁बन्यो	-5035
जय	-5036
▁माटो	-5037
▁आत्महत्या	-5038
▁रहन	-5039
▁अनौ	-5040
▁केश	-5041
्याउने	-5042
मुखी	-5043
▁भित्र्या	-5044
▁हुनुहु	-5045
▁दियो	-5046
त्मा	-5047
▁समूहको	-5048
कालमा	-5049
▁कार्कीले	-5050
▁जितेको	-5051
▁बीबीसी	-5052
ेसँग	-5053
रहे	-5054
▁दर्शक	-5055
▁जोडी	-5056
▁प्रवद्र्धन	-5057
▁टुंगो	-5058
▁सुपर	-5059
वरी	-5060
देख	-5061
▁गोप्य	-5062
▁ठेकेदार	-5063
▁शिक्षण	-5064
▁गाउँपालिकाको	-5065
▁पक्षले	-5066
▁मदन	-5067
▁स्वीकृत	-5068
▁इन्ड	-5069
▁दीर्घ	-5070
▁निको	-5071
▁चेक	-5072
▁पोर्ट	-5073
▁नष्ट	-5074
केट	-5075
▁पूँजी	-5076
ारण	-5077
▁समृद्धिको	-5078
▁अध्यक्षतामा	-5079
▁बाहिरि	-5080
टाको	-5081
▁रहेकाले	-5082
▁५२	-5083
▁रोप	-5084
▁सरुवा	-5085
▁सन्दी	-5086
▁साझेदारी	-5087
▁उड	-5088
चार्ज	-5089
▁भन्यो	-5090
▁जोडिएको	-5091
▁उपेन्द्र	-5092
▁अंश	-5093
▁स्टार	-5094
▁ज्यो	-5095
▁आउँदा	-5096
▁पूर्वी	-5097
▁कर्मचारीलाई	-5098
▁नेप्से	-5099
▁काल	-5100
न्थे	-5101
▁झन्डै	-5102
▁जाँदै	-5103
वक्ता	-5104
▁बनाउनु	-5105
▁अवरुद्ध	-5106
▁गोपाल	-5107
▁हटाउन	-5108
▁मात्रा	-5109
▁दिनसम्म	-5110
▁हिन्दु	-5111
ुञ्ज	-5112
▁चरि	-5113
नुभएका	-5114
▁छौ	-5115
▁फिचर	-5116
▁गरौं	-5117
▁नवलपरा	-5118
मलाई	-5119
▁कैद	-5120
▁स्वयं	-5121
▁अवधारणा	-5122
est	-5123
▁अन्तरि	-5124
▁शू	-5125
▁चल्	-5126
र्फत्	-5127
१६	-5128
▁देवी	-5129
िको	-5130
▁गीतमा	-5131
▁पहिलोपटक	-5132
▁दलले	-5133
ंदै	-5134
▁पराजु	-5135
औँ	-5136
ल्याण	-5137
▁कप्तान	-5138
▁धितो	-5139
▁ढोका	-5140
र्जी	-5141
▁चौकी	-5142
▁खण्डमा	-5143
▁बेल	-5144
▁उमेरमा	-5145
ब्लिक	-5146
▁दिवसको	-5147
▁देवको	-5148
▁बिका	-5149
ानिस्ता	-5150
किन	-5151
▁अप्ठ	-5152
घन	-5153
▁नराम	-5154
▁भाद्र	-5155
भल	-5156
▁भाग्य	-5157
▁कुराको	-5158
ङ्गल	-5159
बुझ	-5160
▁प्रशास	-5161
▁ओभरमा	-5162
▁विक्र	-5163
▁अवैध	-5164
▁भागमा	-5165
▁उनीहरूलाई	-5166
▁आन्दोलनमा	-5167
▁मृत	-5168
▁दफा	-5169
▁करोडको	-5170
▁राख्नु	-5171
▁फुटब	-5172
▁क्रमश	-5173
▁फाल्	-5174
▁श्रील	-5175
▁सवै	-5176
स्ने	-5177
ग्राम	-5178
▁पढ्नु	-5179
▁जीवनको	-5180
हरुबाट	-5181
ig	-5182
▁प्रक्रियामा	-5183
वाली	-5184
▁in	-5185
▁दीप	-5186
▁चोरी	-5187
रहने	-5188
▁ह्वा	-5189
▁संकट	-5190
▁उनि	-5191
ाउँछन्	-5192
फे	-5193
▁पेस	-5194
काउ	-5195
▁तालिका	-5196
▁सुनको	-5197
▁त्यतिबेला	-5198
सुवा	-5199
▁फोहोर	-5200
▁अर्जुन	-5201
▁हाउ	-5202
▁विशेषज्ञ	-5203
▁मदि	-5204
▁गर्नुहोला	-5205
७७	-5206
▁अन्नपूर्ण	-5207
▁अस्पतालको	-5208
▁तारा	-5209
▁रत्न	-5210
▁दरबार	-5211
▁तिम्रो	-5212
▁रुचि	-5213
▁राख्दै	-5214
▁ठाकुर	-5215
हीँ	-5216
ङ्गो	-5217
▁सहितको	-5218
▁मर्मत	-5219
▁गरिसकेका	-5220
▁उता	-5221
▁लिखित	-5222
▁४१	-5223
mail	-5224
▁सन	-5225
▁कमजो	-5226
ल्स	-5227
▁सभामा	-5228
▁उन्	-5229
▁गायिका	-5230
▁अस्वी	-5231
▁सङ्घीय	-5232
▁अन्तराष्ट्रिय	-5233
▁अतिथि	-5234
▁तारिख	-5235
▁५६	-5236
अधिकार	-5237
▁सेमि	-5238
▁लगाइ	-5239
्याग	-5240
▁संस्कार	-5241
▁बाटोमा	-5242
▁सेतो	-5243
▁रणनीति	-5244
▁दाङ	-5245
▁क्वार	-5246
नेकपा	-5247
▁W	-5248
▁प्राथमिकतामा	-5249
▁यसपटक	-5250
▁उत्साह	-5251
▁जोड्ने	-5252
un	-5253
▁नगर्न	-5254
▁खालको	-5255
गणना	-5256
▁एप	-5257
▁तपाईले	-5258
▁संस्थाका	-5259
▁बढेर	-5260
बाद	-5261
पीडित	-5262
▁अध्यक्षमा	-5263
▁पस	-5264
▁जसलाई	-5265
▁सेवामा	-5266
▁घाटा	-5267
▁चलिरहेको	-5268
दरबार	-5269
स्वास्थ्य	-5270
▁झो	-5271
▁गर्दछन्	-5272
▁तन	-5273
▁बिस्तार	-5274
▁बलमा	-5275
▁पठाउन	-5276
▁बिग्र	-5277
ation	-5278
▁कार्यविधि	-5279
▁चलेको	-5280
▁नगरपालिकामा	-5281
▁विद्युतीय	-5282
▁मुद्रा	-5283
▁चर	-5284
art	-5285
▁यतिबेला	-5286
▁४९	-5287
▁news	-5288
▁अफगानिस्ता	-5289
▁नेताले	-5290
▁फार	-5291
अहिले	-5292
▁ल्याएर	-5293
आफ्नो	-5294
▁महतो	-5295
जनमा	-5296
▁न्यूनतम	-5297
रै	-5298
▁मङ्सिर	-5299
सिए	-5300
स्यौ	-5301
▁पार्टीमा	-5302
ढु	-5303
सम्पादन	-5304
▁न्युज	-5305
▁खोज्ने	-5306
▁भाषाको	-5307
▁विमानस्थलमा	-5308
▁विस्	-5309
▁अभिनेता	-5310
▁बुँदे	-5311
▁संस्थान	-5312
जत	-5313
ामीण	-5314
▁Comment	-5315
▁समायोजन	-5316
▁आर्म	-5317
▁हेरेर	-5318
सत	-5319
ट्टै	-5320
ember	-5321
▁सिर	-5322
▁रहन्छ	-5323
ेन्टि	-5324
▁जरिवा	-5325
▁एल	-5326
▁निकुञ्ज	-5327
▁भारतबाट	-5328
▁हल्ला	-5329
ियत	-5330
▁रमाइलो	-5331
▁योग्य	-5332
▁मंगलवार	-5333
स्ति	-5334
उँछन्	-5335
▁प्	-5336
▁गुल्मी	-5337
▁मोह	-5338
▁सूचीमा	-5339
▁खुलेको	-5340
▁विव	-5341
▁काउन्	-5342
यले	-5343
▁ब्रि	-5344
▁विभेद	-5345
▁अभियोग	-5346
▁खराब	-5347
▁रहनेछ	-5348
कुमारी	-5349
▁प्रविधिको	-5350
ter	-5351
क्ष्	-5352
▁थालिएको	-5353
▁शुरू	-5354
▁अभिभावक	-5355
▁कर्त	-5356
▁मेसिन	-5357
▁आकर्षित	-5358
▁आजदेखि	-5359
▁बराब	-5360
▁इलाका	-5361
▁डिजाइन	-5362
प्ताहिक	-5363
▁काठमाडा	-5364
▁थाल्यो	-5365
▁डाउन	-5366
▁पार्क	-5367
▁बजेसम्म	-5368
▁विपक्षी	-5369
न्थी	-5370
यमित	-5371
ण्डित	-5372
▁आशंका	-5373
भक्त	-5374
▁ढुंगा	-5375
▁मोहन	-5376
▁असह	-5377
राष्ट्रपति	-5378
क्या	-5379
▁गीतको	-5380
डेट	-5381
▁जनामा	-5382
▁आउँदै	-5383
स्टि	-5384
मुक्त	-5385
▁थान	-5386
▁छाया	-5387
▁खोटा	-5388
म्बरमा	-5389
काठमाड	-5390
▁संस्थापक	-5391
हिता	-5392
योग्य	-5393
▁समयको	-5394
▁चाम	-5395
▁उत्त	-5396
▁समझदारी	-5397
▁ग्रामीण	-5398
▁देखिए	-5399
▁साप्ताहिक	-5400
▁विसं	-5401
धारा	-5402
ब्बा	-5403
▁लोड	-5404
▁सञ्जालमा	-5405
भूमि	-5406
▁सजिलै	-5407
▁नेताहरुले	-5408
▁कञ्चनपुर	-5409
▁प्रदीप	-5410
▁हजुर	-5411
▁गरिब	-5412
▁तोकेको	-5413
▁४६	-5414
▁सम्बन्धि	-5415
▁तथ्याङ्क	-5416
नोद	-5417
▁सेट	-5418
▁दर्शन	-5419
ous	-5420
माल	-5421
▁पाठ्य	-5422
▁भर्खरै	-5423
▁लैजाने	-5424
▁विद्यार्थीलाई	-5425
▁सम्पदा	-5426
▁तुलसी	-5427
▁तार	-5428
रात	-5429
▁नम्बरको	-5430
▁भेटघाट	-5431
▁©	-5432
▁आकर्षक	-5433
▁फिल्मको	-5434
▁अवलोकन	-5435
▁श्रीमा	-5436
▁बोल्	-5437
बन्द	-5438
▁स्थिर	-5439
▁मनाउने	-5440
▁बयान	-5441
▁शरीरमा	-5442
▁शैली	-5443
▁लगाइएको	-5444
▁विशि	-5445
रूपमा	-5446
▁मस्यौ	-5447
▁वृद्ध	-5448
र्प	-5449
▁समाप्त	-5450
मध	-5451
▁प्रायः	-5452
▁अरब	-5453
▁चलचित्रमा	-5454
ेरा	-5455
▁चल्ने	-5456
",	-5457
पुग्	-5458
▁मल्	-5459
▁सरोकारवाला	-5460
त्तर	-5461
▁घन्टा	-5462
▁8	-5463
शल	-5464
माध्य	-5465
रस	-5466
ियाँ	-5467
▁मसान्त	-5468
▁सभाको	-5469
▁दोश्रो	-5470
▁लाखको	-5471
▁हैसिय	-5472
▁बैंकिङ	-5473
▁मिल	-5474
▁लेख्ने	-5475
▁क्षेत्रबाट	-5476
▁भाउ	-5477
खन	-5478
▁रवि	-5479
▁आउट	-5480
▁बारा	-5481
वती	-5482
▁मधु	-5483
▁यहि	-5484
▁नेपालीले	-5485
पान्तरण	-5486
▁पारे	-5487
▁सरकारसँग	-5488
निर्वा	-5489
इरहेका	-5490
▁बाध्यता	-5491
▁हटा	-5492
▁यसबारे	-5493
चोक	-5494
▁ः	-5495
▁सडकको	-5496
▁बसोबास	-5497
▁चक्र	-5498
▁मस्यौदा	-5499
रल	-5500
छो	-5501
▁अंग्रेजी	-5502
लाका	-5503
▁नाइ	-5504
ot	-5505
▁भुट	-5506
▁सिटी	-5507
हामीले	-5508
▁भिड	-5509
▁एकताको	-5510
nepal	-5511
▁त्र	-5512
▁अग्रता	-5513
अप	-5514
▁अगुवा	-5515
▁प्रकट	-5516
धारित	-5517
▁खोल्	-5518
▁प्रि	-5519
▁मारि	-5520
▁नेटव	-5521
▁छलफलमा	-5522
ain	-5523
▁वर्षभित्र	-5524
▁५४	-5525
▁परमेश्व	-5526
▁गाउँपालिकाका	-5527
▁रसुवा	-5528
▁युनियन	-5529
रका	-5530
▁रेखा	-5531
व्	-5532
▁पढ्ने	-5533
▁यथार्थ	-5534
▁कल्पना	-5535
डीले	-5536
▁चर्चामा	-5537
▁आमाको	-5538
▁मूल्यमा	-5539
▁वटै	-5540
▁थापाको	-5541
▁हेटौं	-5542
▁एच	-5543
▁स्थानीयवासी	-5544
▁सेवाको	-5545
▁गाउँपालिकामा	-5546
▁ताजा	-5547
▁अत्यधिक	-5548
ेसी	-5549
▁नया	-5550
▁५३	-5551
▁उहाँलाई	-5552
▁बिमा	-5553
५०	-5554
▁अस्पतालका	-5555
▁०६	-5556
▁लिंक	-5557
रासस	-5558
▁भाषामा	-5559
▁रुकु	-5560
▁थारु	-5561
▁गर्नेछन्	-5562
▁प्रमाणित	-5563
▁कुव	-5564
▁पेशा	-5565
ap	-5566
१७	-5567
पार्क	-5568
एनन्	-5569
▁नकारात्मक	-5570
िकरण	-5571
▁विहान	-5572
▁चाँडै	-5573
▁प्रतिवद्ध	-5574
▁तोड	-5575
▁तब	-5576
▁इजला	-5577
▁निर्वाचनका	-5578
▁विद्यार्थीको	-5579
तया	-5580
▁गुणस्तरीय	-5581
▁गजल	-5582
▁आईत	-5583
कियो	-5584
▁सुरू	-5585
▁हुनसक्ने	-5586
अब	-5587
▁महरा	-5588
▁चाँ	-5589
▁मन्त्रालयमा	-5590
▁सहायता	-5591
▁नपर्ने	-5592
क्टो	-5593
्चोक	-5594
▁दिनदेखि	-5595
▁भार	-5596
▁सत	-5597
चण्ड	-5598
▁रुपियाँ	-5599
▁राजधानीमा	-5600
्यारो	-5601
▁बृह	-5602
▁सवाल	-5603
▁भैरह	-5604
एँ	-5605
▁देखेर	-5606
१४	-5607
लार्इ	-5608
वाको	-5609
▁ट्वीटर	-5610
ड्दै	-5611
दायी	-5612
▁दिनुभएको	-5613
▁लेखिएको	-5614
▁नियमावली	-5615
▁ल्याइएको	-5616
▁समूहका	-5617
▁In	-5618
लेट	-5619
▁गर्दैन	-5620
ट्यु	-5621
▁नाच	-5622
▁समयसम्म	-5623
▁विद्यालयको	-5624
▁!!	-5625
ह्र	-5626
▁पछिल्ला	-5627
▁ओलीलाई	-5628
▁आदिवासी	-5629
सिना	-5630
▁सीप	-5631
प्रद	-5632
काइ	-5633
▁उपत्यकामा	-5634
ूहिक	-5635
प्ने	-5636
थ्य	-5637
▁बनाउँदै	-5638
▁जरिवाना	-5639
दायक	-5640
▁हिम	-5641
▁पुर्याउन	-5642
उमा	-5643
▁सर्त	-5644
▁सेमिफाइन	-5645
▁कर्मचारीले	-5646
▁रामचन्द्र	-5647
धीन	-5648
▁रौतह	-5649
श्रमिक	-5650
लाम	-5651
▁लम	-5652
▁नायक	-5653
▁फलफ	-5654
▁कुरालाई	-5655
▁सेन्ट	-5656
पाल्चोक	-5657
▁सस्तो	-5658
नैतिक	-5659
▁२०१६	-5660
ालु	-5661
▁५८	-5662
▁दिगो	-5663
इड	-5664
▁पाल्पा	-5665
▁मानिसले	-5666
कू	-5667
जुङ	-5668
▁गाविस	-5669
▁जाति	-5670
▁लुट	-5671
िती	-5672
▁हस्तक्षेप	-5673
डाको	-5674
▁७२	-5675
▁छिट्टै	-5676
काउन	-5677
▁चालू	-5678
▁थिएनन्	-5679
▁जुनसुकै	-5680
▁सहभागि	-5681
▁प्रभु	-5682
▁विशिष्ट	-5683
▁लघुव	-5684
कल्प	-5685
▁फरार	-5686
▁देशलाई	-5687
▁दुर्गा	-5688
▁उत्तम	-5689
▁श्रेष्ठको	-5690
▁बाँध	-5691
▁खनालले	-5692
▁शून्य	-5693
▁सत्	-5694
▁छाप	-5695
ोषण	-5696
▁६४	-5697
▁खड्काले	-5698
ok	-5699
▁बानी	-5700
▁छात्र	-5701
▁सामूहिक	-5702
▁महाधिवेश	-5703
▁संयन्त्र	-5704
▁कुराहरु	-5705
सङ्घ	-5706
▁किताब	-5707
निर्भर	-5708
▁कूल	-5709
पक्षीय	-5710
▁मकवानपुर	-5711
▁आन्दोलनको	-5712
प्रचण्ड	-5713
▁श्रावण	-5714
▁४७	-5715
नेश्वर	-5716
▁राखे	-5717
ir	-5718
▁दायर	-5719
▁नेकपाका	-5720
▁धम्	-5721
▁स्वतन्त्रता	-5722
aj	-5723
▁विज्ञप्तिमा	-5724
▁Pre	-5725
▁ग्यास	-5726
दीको	-5727
स्पद	-5728
▁U	-5729
▁बनाई	-5730
▁कम्पनीका	-5731
▁धनुषा	-5732
▁परम्परागत	-5733
▁माझ	-5734
us	-5735
प्टे	-5736
▁करण	-5737
▁पुग्छ	-5738
▁पुनरा	-5739
▁गाउ	-5740
सक्नु	-5741
▁कारा	-5742
▁कोइरालाले	-5743
▁चाहन्छु	-5744
▁मोरङ	-5745
यस	-5746
▁डिसे	-5747
▁पाउनु	-5748
▁विद्रो	-5749
द्धारा	-5750
ab	-5751
आमा	-5752
▁बसि	-5753
▁प्रती	-5754
▁कार्यकाल	-5755
▁पालिका	-5756
▁जै	-5757
ेन्ड	-5758
७२	-5759
र्सिलो	-5760
▁श्रृ	-5761
▁उपहार	-5762
नुहुनेछ	-5763
▁आश्	-5764
▁एकद	-5765
▁खिच	-5766
यू	-5767
कां	-5768
िरहेका	-5769
▁मधेशी	-5770
क्की	-5771
ामन्त्री	-5772
▁नमुना	-5773
▁समस्याको	-5774
▁सुशासन	-5775
▁खोला	-5776
Ne	-5777
चाहि	-5778
▁प्राप्	-5779
▁ग्लो	-5780
▁ट्रम्पले	-5781
▁गौरव	-5782
▁रोकिएको	-5783
▁जनजाति	-5784
▁शर्त	-5785
▁हुन्न	-5786
▁अस्ट्रेलिया	-5787
▁मदिरा	-5788
▁श्रे	-5789
नेस	-5790
▁विप्लव	-5791
▁श्रीमान	-5792
▁ड्र	-5793
▁टेक	-5794
द्यान्न	-5795
दिएको	-5796
उनुपर्ने	-5797
ेषण	-5798
▁युनिको	-5799
्योर	-5800
▁फाउ	-5801
▁सिन्धुपाल्चोक	-5802
ंग्	-5803
▁६३	-5804
थान	-5805
▁विकसित	-5806
▁भगवान	-5807
▁सिंहले	-5808
▁विज्ञा	-5809
▁ज्ञापन	-5810
▁विशाल	-5811
▁यिन	-5812
▁शौ	-5813
▁युवराज	-5814
▁चरित्र	-5815
▁नसकिने	-5816
सक्यो	-5817
▁चौधरीले	-5818
▁स्रोतले	-5819
▁माओवादीले	-5820
▁आक	-5821
▁काँ	-5822
▁बर्द	-5823
▁जंग	-5824
▁पाई	-5825
▁गौतमले	-5826
▁पर्सा	-5827
घरमा	-5828
▁व्यक्तित्व	-5829
ड्ड	-5830
▁२०२०	-5831
▁छापा	-5832
▁भिन्न	-5833
▁बार्सिलो	-5834
टका	-5835
▁सम्मानित	-5836
▁हृदय	-5837
ub	-5838
▁ठगी	-5839
▁छुट्या	-5840
▁पण्डित	-5841
▁दरले	-5842
केको	-5843
▁तनहुँ	-5844
▁प्रतिभा	-5845
▁मातृ	-5846
▁गर्नुहुन्छ	-5847
▁खाद्यान्न	-5848
ित्तिकै	-5849
िन्छ	-5850
▁बनाउँछ	-5851
▁बोनस	-5852
▁शरण	-5853
▁अध्यादेश	-5854
▁बहा	-5855
प्रकाश	-5856
विहीन	-5857
▁ज्योति	-5858
ौली	-5859
▁सुरुमा	-5860
▁मार्च	-5861
▁काठ	-5862
▁तपाईलाई	-5863
गरीय	-5864
▁उपभोग	-5865
्यारा	-5866
▁नलाग	-5867
▁अलपत्र	-5868
पल्ट	-5869
▁कैलाली	-5870
लिम	-5871
▁चाहिन्छ	-5872
▁भइसकेका	-5873
▁आइरहेको	-5874
शास्त्र	-5875
ोस्	-5876
▁भेटिएको	-5877
उप	-5878
▁शिखर	-5879
▁व्यवसायिक	-5880
▁दुइ	-5881
▁कुखु	-5882
▁अस्ति	-5883
▁केटा	-5884
▁खानु	-5885
▁पहाड	-5886
▁अनियमित	-5887
▁एकदमै	-5888
▁भन्छिन्	-5889
वादको	-5890
▁गिरी	-5891
▁तल्लो	-5892
▁प्रहरीलाई	-5893
ड्रो	-5894
▁अनुसारको	-5895
▁इन्ध	-5896
▁रद्द	-5897
▁रोमा	-5898
▁तै	-5899
▁2017	-5900
▁चोक	-5901
▁कुर	-5902
▁बैङ्क	-5903
▁समाजका	-5904
▁दुर्ग	-5905
▁जन्मा	-5906
▁हेरि	-5907
▁th	-5908
▁रहस्य	-5909
ग्रस्त	-5910
लट	-5911
▁लडा	-5912
▁गराउ	-5913
लागि	-5914
यात्रा	-5915
▁घि	-5916
▁परिवारले	-5917
▁स्वर	-5918
▁नृ	-5919
लेन्स	-5920
▁पेट्रोलियम	-5921
▁रिट	-5922
▁6	-5923
▁सदस्यको	-5924
नेका	-5925
xt	-5926
एच	-5927
▁ढकालले	-5928
एमा	-5929
▁लाग्दैन	-5930
▁रुपैयाँको	-5931
▁महँग	-5932
▁विश्वमा	-5933
▁भिसा	-5934
▁पश्चा	-5935
▁पारिश्रमिक	-5936
▁५७	-5937
▁स्टो	-5938
▁माध्यमिक	-5939
▁प्रशंसा	-5940
▁राष्ट्रसंघ	-5941
eb	-5942
निङ	-5943
▁हिउँ	-5944
▁कार्यक्रमलाई	-5945
विका	-5946
लभ	-5947
▁विकि	-5948
बासी	-5949
▁ज्ञवाली	-5950
तन	-5951
▁ब्यक्ति	-5952
▁किशोर	-5953
har	-5954
▁बर्षको	-5955
ेसँगै	-5956
▁छाडेर	-5957
वहार	-5958
ov	-5959
▁कहिलेका	-5960
▁सिंहदरबार	-5961
▁पुर्व	-5962
िरहेको	-5963
▁Post	-5964
भरी	-5965
▁अफ्र	-5966
▁प्रहरीका	-5967
▁संचार	-5968
▁मावि	-5969
▁उपप्रमुख	-5970
▁कमजोरी	-5971
▁निरीक्षक	-5972
▁कल्याण	-5973
▁पर्नेछ	-5974
▁दुईवटा	-5975
▁जातीय	-5976
▁नमा	-5977
▁भेट्न	-5978
▁सायद	-5979
▁बढिरहेको	-5980
सेन्स	-5981
▁सकेनन्	-5982
▁महानगरीय	-5983
▁सघ	-5984
▁10	-5985
▁विश्वको	-5986
लिपि	-5987
स्थापना	-5988
▁नारी	-5989
▁अस्पतालले	-5990
औष	-5991
▁हौ	-5992
रियाली	-5993
स्सा	-5994
▁छैन्	-5995
▁बाढ	-5996
▁फ्र	-5997
▁पवि	-5998
▁हङकङ	-5999
▁फाइनल	-6000
ac	-6001
▁आचार्यले	-6002
▁नेपालगञ्ज	-6003
लम्बन	-6004
▁विघटन	-6005
▁गुट	-6006
▁सेक्स	-6007
▁आश्विन	-6008
▁भारी	-6009
▁शिक्षाको	-6010
ह्न	-6011
▁धेरैले	-6012
पार	-6013
▁रोल्पा	-6014
11	-6015
▁खडा	-6016
▁सन्तान	-6017
▁स्टा	-6018
▁स्मृति	-6019
▁प्रोत्साहन	-6020
▁आएकी	-6021
दुई	-6022
▁स्वि	-6023
▁जित्न	-6024
▁d	-6025
ारुढ	-6026
एकाले	-6027
▁लेखेका	-6028
▁पर्वत	-6029
न्दू	-6030
▁नुवाकोट	-6031
लवस्तु	-6032
▁काँग्रेसका	-6033
▁न्यूज	-6034
▁संशो	-6035
▁तुरु	-6036
▁दोषी	-6037
▁बराम	-6038
▁पठाइ	-6039
ेरु	-6040
▁नदीमा	-6041
▁स्वर्ण	-6042
▁भेटवार्ता	-6043
▁त्यसरी	-6044
▁भव्य	-6045
▁सुन्न	-6046
▁भीड	-6047
चाह	-6048
ोमा	-6049
▁दोहोरो	-6050
र्देश	-6051
▁ग्राम	-6052
धनमा	-6053
▁रुपैया	-6054
र्दिक	-6055
▁उल्ल	-6056
▁केन्द्रिय	-6057
साधन	-6058
▁उप्र	-6059
▁ल्याइ	-6060
जीवन	-6061
▁भरि	-6062
▁पाकिस्तान	-6063
▁दिइने	-6064
वान्	-6065
शिल	-6066
१३	-6067
क्रममा	-6068
रहँदा	-6069
▁गएपछि	-6070
▁अनलाई	-6071
▁पब्लिक	-6072
▁८५	-6073
▁वास्तवमा	-6074
▁दिनुपर्छ	-6075
▁प्रतिवेदनमा	-6076
▁कर्तव्य	-6077
▁मार्क	-6078
▁जोखिममा	-6079
▁किरण	-6080
▁काभ्रे	-6081
▁शनिवार	-6082
▁हकमा	-6083
▁फाइनलमा	-6084
▁ष	-6085
▁अनाव	-6086
▁फैलिएको	-6087
▁बिरामीको	-6088
ल्का	-6089
▁।\	-6090
▁थाइ	-6091
▁पति	-6092
▁साइट	-6093
▁सत्तारुढ	-6094
▁तपाईँको	-6095
▁क्रमशः	-6096
▁६२	-6097
ेटिभ	-6098
▁चोट	-6099
वित	-6100
▁रोगको	-6101
▁लागे	-6102
▁७६	-6103
ंस	-6104
स्थापित	-6105
र्द्ध	-6106
▁लेखेको	-6107
मेरो	-6108
▁भएसँगै	-6109
सरकार	-6110
यती	-6111
▁गर्भव	-6112
▁शता	-6113
▁अमेरिकाले	-6114
▁रिस	-6115
▁तुरुन्त	-6116
▁सकियो	-6117
परिवार	-6118
▁हार्दिक	-6119
्यानल	-6120
बहि	-6121
▁तातो	-6122
्छन्	-6123
▁सन्धि	-6124
यरमा	-6125
▁आजै	-6126
मैत्री	-6127
▁सद्	-6128
▁डाउनलोड	-6129
▁बिहिबार	-6130
▁चम्	-6131
▁कक्ष	-6132
चीन	-6133
▁जनयुद्ध	-6134
▁मानिसहरु	-6135
▁हुनुभएको	-6136
▁एकपटक	-6137
▁भाइरसको	-6138
▁गराए	-6139
▁विश्वभर	-6140
▁टाइप	-6141
▁टिका	-6142
▁हेरिएको	-6143
▁गर्नको	-6144
▁ब्लग	-6145
▁महोत्त	-6146
▁चाहने	-6147
▁उपचारको	-6148
▁विद्यादेवी	-6149
▁नराम्रो	-6150
।”	-6151
▁बैत	-6152
▁संघीयता	-6153
▁सिमेन्ट	-6154
▁खुवा	-6155
▁मङ्गल	-6156
▁तिनीहरू	-6157
▁मनोज	-6158
▁विज्ञप्ति	-6159
कल्पिक	-6160
ary	-6161
▁देखी	-6162
▁चाहेको	-6163
▁Comments	-6164
▁रामबहादुर	-6165
▁अस्वीकार	-6166
▁जनाए	-6167
▁बाली	-6168
▁संवेदन	-6169
▁स्वच्छ	-6170
विद्	-6171
▁हिरा	-6172
२५	-6173
▁नेकपाको	-6174
सीय	-6175
▁लिनु	-6176
▁भिडियोमा	-6177
▁गर्थे	-6178
▁पक्कै	-6179
▁देखाउन	-6180
▁गर्छौं	-6181
▁तत्व	-6182
ुरे	-6183
▁प्रतिपक्षी	-6184
▁मुलुकका	-6185
▁शंकर	-6186
थु	-6187
▁भलि	-6188
न्डर	-6189
र्की	-6190
▁महासंघका	-6191
▁७७	-6192
▁प्याके	-6193
▁गर्दैछ	-6194
▁उस्तै	-6195
▁बेल्	-6196
▁अचम्म	-6197
पट	-6198
▁हिँ	-6199
▁उत्तिकै	-6200
▁लिइ	-6201
▁सम्वन्ध	-6202
▁बस्नेतले	-6203
▁निर्धारित	-6204
▁वी	-6205
▁कुवेत	-6206
▁विभाजन	-6207
नीकरण	-6208
▁किन्न	-6209
▁चित्त	-6210
टारमा	-6211
वारिक	-6212
▁रहनु	-6213
सोले	-6214
मित्व	-6215
▁पञ्चा	-6216
▁अक्सि	-6217
▁केटी	-6218
▁लगानीमा	-6219
▁प्रशासक	-6220
मीले	-6221
▁फ्या	-6222
▁मानिसहरू	-6223
▁नेपालबाट	-6224
▁रानी	-6225
▁चलचित्रको	-6226
नेपाली	-6227
छी	-6228
▁माइक्रो	-6229
▁एशिया	-6230
।"	-6231
▁सिरि	-6232
▁•	-6233
▁संविधानले	-6234
राय	-6235
▁सक्नु	-6236
▁भविष्यमा	-6237
▁बरामद	-6238
▁अडान	-6239
▁क्याम्पस	-6240
▁विश्वव्यापी	-6241
सनमा	-6242
▁नदिन	-6243
▁मेलम्	-6244
िरमा	-6245
▁टन	-6246
▁सेवाग्राही	-6247
▁सेप्टे	-6248
vious	-6249
▁स्वर्ग	-6250
▁गरिबी	-6251
▁मतगणना	-6252
▁विवेक	-6253
▁विज्ञापनका	-6254
▁बजेदेखि	-6255
छोरी	-6256
▁सङ्कलन	-6257
▁संस्थामा	-6258
▁पत्नी	-6259
▁ब्राजि	-6260
▁नु	-6261
▁निगमले	-6262
▁गतिमा	-6263
▁दिएपछि	-6264
▁अपहरण	-6265
▁रुख	-6266
ati	-6267
▁हिमाली	-6268
▁रेड	-6269
▁युट्यु	-6270
▁९५	-6271
▁सञ्चारमाध्य	-6272
▁V	-6273
▁समारोहमा	-6274
▁राजेश	-6275
डीमा	-6276
▁भैरहवा	-6277
▁पह	-6278
▁अल्प	-6279
किल	-6280
▁गणना	-6281
▁बनेर	-6282
सिद्ध	-6283
▁पला	-6284
▁दिनेश	-6285
कका	-6286
out	-6287
िल्ली	-6288
▁वस	-6289
▁।।	-6290
▁गुणा	-6291
औषध	-6292
▁भुस	-6293
▁६८	-6294
▁उर्जा	-6295
भावना	-6296
)।	-6297
▁रावल	-6298
▁पत्रकारिता	-6299
▁पूरै	-6300
▁बाम	-6301
▁नपुग	-6302
▁शौच	-6303
▁नेपालीलाई	-6304
▁चर्को	-6305
▁फ्	-6306
▁दोल	-6307
▁शुद्ध	-6308
▁अधिकारीको	-6309
ह्	-6310
▁दाइ	-6311
▁मोडल	-6312
▁जित्ने	-6313
▁सुरक्षाको	-6314
▁लेख्न	-6315
▁मानवीय	-6316
▁दसैं	-6317
▁ठिक	-6318
याउने	-6319
▁कीर्ति	-6320
▁कूट	-6321
लाग्दो	-6322
▁राजश्व	-6323
▁प्रतिपक्ष	-6324
▁फ्रि	-6325
▁असल	-6326
जिङ	-6327
▁छोडेर	-6328
ण्ट	-6329
▁खरी	-6330
▁जमा	-6331
▁डाटा	-6332
▁रहि	-6333
▁तिनीहरूले	-6334
▁तिहा	-6335
सम्मका	-6336
▁बाँके	-6337
सम्ममा	-6338
▁चाहन्छ	-6339
▁मुल्य	-6340
थर	-6341
▁w	-6342
▁कामका	-6343
▁क्रान्तिकारी	-6344
नुपर्यो	-6345
▁उपाध्या	-6346
▁गाउँपालिकाले	-6347
▁दिनभित्र	-6348
▁हकप्रद	-6349
निस	-6350
ख्य	-6351
▁मानिसलाई	-6352
▁प्रय	-6353
▁ज्व	-6354
च्छेद	-6355
▁निर्णा	-6356
▁Previous	-6357
ड्नु	-6358
▁सुन्त	-6359
▁लाभांश	-6360
खोला	-6361
▁सिँच	-6362
▁सैन्य	-6363
▁पाण्डेले	-6364
▁7	-6365
▁ध्व	-6366
▁अनुभूति	-6367
▁कोठामा	-6368
ङ्कन	-6369
▁एक्लै	-6370
▁स्वामित्व	-6371
▁प्रदर्शनमा	-6372
▁समूहमा	-6373
▁कन्ट	-6374
▁अधिकारको	-6375
▁भाषण	-6376
▁स्वास्थ्यमा	-6377
दित	-6378
▁जसका	-6379
▁उठाउन	-6380
मैले	-6381
▁काली	-6382
▁समुदायका	-6383
▁स्थानीयले	-6384
▁पारिवारिक	-6385
▁७८	-6386
▁निम्न	-6387
▁राम्रा	-6388
▁सिरहा	-6389
▁५९	-6390
हरूबाट	-6391
▁सधैँ	-6392
▁समस्यामा	-6393
सिस	-6394
▁अपाङ्ग	-6395
ानमा	-6396
▁हाइड्रो	-6397
▁खै	-6398
▁यात्रामा	-6399
▁निजाम	-6400
▁रोकथा	-6401
▁मल्ल	-6402
▁उहाँका	-6403
▁संसदको	-6404
ec	-6405
जले	-6406
वश्यक	-6407
▁विपन्न	-6408
▁विशेषता	-6409
▁उचाइ	-6410
मात्रै	-6411
▁खरेल	-6412
▁क्रियाकलाप	-6413
▁घरमै	-6414
▁६१	-6415
▁विज्ञापनको	-6416
▁६६	-6417
▁हद	-6418
▁सहसचिव	-6419
हिने	-6420
हिर	-6421
▁वडामा	-6422
▁शाहले	-6423
▁निर्णायक	-6424
▁बृद्धि	-6425
डाइ	-6426
▁नेटवर्क	-6427
▁लम्	-6428
▁श्रो	-6429
वृत्ति	-6430
किए	-6431
▁अपडेट	-6432
ैमा	-6433
▁उन्न	-6434
▁गरेमा	-6435
सिप	-6436
▁गर्मी	-6437
▁राखी	-6438
ँचो	-6439
▁श्रीलंका	-6440
याम	-6441
▁परिक	-6442
काको	-6443
गाई	-6444
▁ज्य	-6445
▁मृतक	-6446
माया	-6447
▁सर्वे	-6448
▁अत्यन्तै	-6449
▁शपथ	-6450
▁Next	-6451
▁भएकै	-6452
▁रियल	-6453
▁बाह्य	-6454
▁आख	-6455
सिङ	-6456
▁कपाल	-6457
▁उत्पादनमा	-6458
▁बर्दिया	-6459
▁अलिक	-6460
▁कानूनी	-6461
▁चाहिने	-6462
▁वाइ	-6463
▁किसिमका	-6464
▁नैतिक	-6465
प्रसार	-6466
▁आत्मा	-6467
खबर	-6468
▁कुकुर	-6469
▁सङ्क्रमित	-6470
▁बालबालिकाको	-6471
▁सुनुवाइ	-6472
▁७४	-6473
नायक	-6474
▁साँच्च	-6475
नात्मक	-6476
▁हराएको	-6477
विरुद्धको	-6478
▁जिन्द	-6479
▁साहित्यकार	-6480
▁सलमान	-6481
▁सिल	-6482
▁प्रयोगको	-6483
▁अन्तरक्रिया	-6484
▁नृत्य	-6485
▁खालका	-6486
▁क्वा	-6487
▁नक्सा	-6488
▁आपत्ति	-6489
▁भैरहेको	-6490
नान्स	-6491
शालामा	-6492
▁रेग्मी	-6493
▁दान	-6494
▁शिविर	-6495
▁उड्ड	-6496
▁बोल्ने	-6497
जरको	-6498
▁दोलखा	-6499
▁बोल्न	-6500
फ्ट	-6501
▁२०१५	-6502
गण्डकी	-6503
▁नायब	-6504
▁शताब्	-6505
वत्	-6506
▁नेपालगन्ज	-6507
▁जला	-6508
निकी	-6509
▁हुनेको	-6510
याे	-6511
शेर	-6512
▁गर्भवती	-6513
मणि	-6514
▁वर	-6515
▁गित	-6516
र्नुपर्ने	-6517
--	-6518
▁विच	-6519
▁स्वरुप	-6520
▁आसपा	-6521
खत	-6522
▁निम	-6523
पन्थी	-6524
ortal	-6525
▁विनोद	-6526
▁गोल्	-6527
▁कम्तिमा	-6528
▁देखिन	-6529
▁फलफूल	-6530
▁आफुले	-6531
▁मुस्ता	-6532
▁ट्रेल	-6533
प्रतिको	-6534
र्पण	-6535
▁गोर्खा	-6536
▁चुक्ता	-6537
▁क्षमताको	-6538
▁व्याख्या	-6539
▁व्यवसायीले	-6540
लाही	-6541
▁ईश्वर	-6542
▁प्रणालीमा	-6543
जीको	-6544
▁इन्टरने	-6545
▁प्रतिवद्धता	-6546
लोक	-6547
▁तस्वीर	-6548
▁अन्तर्वार्ता	-6549
पालन	-6550
▁फैलि	-6551
▁बोर्डले	-6552
▁राउत	-6553
राले	-6554
▁आयुक्त	-6555
शैली	-6556
▁हप्	-6557
▁॥	-6558
▁साब	-6559
▁नोभे	-6560
▁आरोहण	-6561
ंदा	-6562
▁पारेका	-6563
▁कृषक	-6564
▁इन्स्योर	-6565
वस्तु	-6566
स्थापन	-6567
▁कमेन्ट	-6568
▁यसैबीच	-6569
▁अंकले	-6570
os	-6571
▁हारा	-6572
▁कृति	-6573
▁लैजान	-6574
▁कोरोनाको	-6575
साम	-6576
▁साधारणसभा	-6577
ip	-6578
▁रहेछन्	-6579
▁स्क्र	-6580
▁ओम	-6581
▁आक्रो	-6582
▁वीरेन्द्र	-6583
▁रहँदा	-6584
▁विपरी	-6585
▁नपाएको	-6586
▁बताइ	-6587
▁कामना	-6588
▁काय	-6589
▁युग	-6590
▁अनुकूल	-6591
ण्डर	-6592
▁बालक	-6593
▁प्रको	-6594
▁बजेटमा	-6595
▁सिम	-6596
▁उपचारमा	-6597
▁खोल्न	-6598
▁राती	-6599
▁शिशु	-6600
▁आदान	-6601
▁पुग्दा	-6602
▁रुपैयाँमा	-6603
ूले	-6604
ज्यालो	-6605
ँदैनन्	-6606
▁ताप	-6607
▁डाइ	-6608
▁बिल	-6609
▁कार्यद	-6610
क्षे	-6611
▁इन्जिनियर	-6612
▁जोश	-6613
▁बनायो	-6614
महा	-6615
▁अना	-6616
खेर	-6617
▁कब्जा	-6618
▁नमू	-6619
इस	-6620
दको	-6621
▁आबद्ध	-6622
शनल	-6623
edia	-6624
केन्द्र	-6625
▁मन्त्रिपरिषद	-6626
▁इलाम	-6627
▁एसियाली	-6628
▁फाल्गुन	-6629
▁नलि	-6630
यौ	-6631
▁art	-6632
्याउन	-6633
▁अभियुक्त	-6634
▁बढाइ	-6635
▁गर्नै	-6636
हाले	-6637
सनको	-6638
▁हेटौंडा	-6639
▁बुझाइ	-6640
योर्क	-6641
▁सहमत	-6642
पत्रिका	-6643
▁छवि	-6644
▁राजु	-6645
▁बढ्छ	-6646
▁प्रियंका	-6647
वास्ता	-6648
▁हात्ती	-6649
▁आत्मनिर्भर	-6650
काई	-6651
▁पक्का	-6652
समक्ष	-6653
ञ्चार	-6654
▁परिमा	-6655
अध्यक्ष	-6656
▁चरम	-6657
▁कन्स	-6658
▁बढुवा	-6659
बमा	-6660
▁भन्नेमा	-6661
,"	-6662
▁ल्याएका	-6663
▁निकायले	-6664
▁ग्लोबल	-6665
▁आदर्श	-6666
▁उड्डयन	-6667
▁त्यसकारण	-6668
▁पद्ध	-6669
▁आतंक	-6670
▁क्षतिपूर्ति	-6671
▁पवित्र	-6672
▁महामा	-6673
▁ढुवानी	-6674
▁अङ्क	-6675
▁बोकेको	-6676
▁जलविद्युत	-6677
▁संविधानमा	-6678
▁अन्तरिम	-6679
▁लगत्तै	-6680
आवास	-6681
▁विदा	-6682
२९	-6683
▁विद्यालयका	-6684
▁ग्रु	-6685
▁हाराहारी	-6686
▁गरिए	-6687
▁मनाउन	-6688
▁देखाउने	-6689
▁ब्यवस्था	-6690
▁बुवा	-6691
टामा	-6692
▁डिसेम्बर	-6693
iv	-6694
▁राय	-6695
क्वा	-6696
▁मुना	-6697
▁बिशेष	-6698
he	-6699
▁कपिलवस्तु	-6700
नुभन्दा	-6701
▁नर्स	-6702
▁त्याग	-6703
पावर	-6704
ेलो	-6705
घात	-6706
▁नेताहरू	-6707
▁२०३	-6708
▁कान्छ	-6709
▁रोनाल्	-6710
भित्रको	-6711
▁लाइसेन्स	-6712
▁७३	-6713
▁उठाउने	-6714
▁गठबन्धनको	-6715
▁फिट	-6716
▁रिज	-6717
▁श्रीमान्	-6718
▁संवेदनशील	-6719
▁पार्दै	-6720
▁अनावश्यक	-6721
ेटिङ	-6722
▁सृजना	-6723
ङ्ग्रेस	-6724
▁ज्येष्ठ	-6725
▁रोपनी	-6726
▁बिदेश	-6727
गं	-6728
▁मन्दिरमा	-6729
▁सर्लाही	-6730
र्ना	-6731
▁एम्बु	-6732
▁नेताको	-6733
▁प्रशस्त	-6734
धाम	-6735
▁सन्दीप	-6736
आज	-6737
षाध्यक्ष	-6738
▁वीरगञ्ज	-6739
▁सशक्त	-6740
दिए	-6741
▁बैंकमा	-6742
▁अधिकतम	-6743
▁एकको	-6744
▁निकायको	-6745
▁कोरि	-6746
▁विद्यार्थीले	-6747
▁असु	-6748
▁किशोरी	-6749
▁उपराष्ट्रपति	-6750
▁अक्टो	-6751
श्री	-6752
▁नागरिकले	-6753
▁पदार्थको	-6754
▁भद्र	-6755
▁संक्रमितको	-6756
▁सम्मको	-6757
▁खेलेको	-6758
▁घुस	-6759
ep	-6760
▁निकालेको	-6761
▁शौचालय	-6762
पेक्ष	-6763
▁मैत्री	-6764
▁हौं	-6765
▁मार्	-6766
▁बढीको	-6767
▁आचार	-6768
▁शुक्	-6769
▁हुनेमा	-6770
▁विस्फोट	-6771
▁एनस	-6772
▁मही	-6773
icle	-6774
▁बुधवार	-6775
▁धनकु	-6776
▁देशले	-6777
अल	-6778
▁गराउनु	-6779
▁स्वदेशी	-6780
▁खोज्न	-6781
▁९९	-6782
▁गगन	-6783
▁घिमिरेले	-6784
सनल	-6785
▁घर्ती	-6786
▁मुम्ब	-6787
▁प्रशासनले	-6788
▁लगाउ	-6789
▁योजनामा	-6790
▁रिहा	-6791
▁वर्ण	-6792
ेँ	-6793
▁ट्रे	-6794
किएका	-6795
▁निगर	-6796
स्तर	-6797
▁त्यहाँको	-6798
▁अनुप	-6799
▁सम्झना	-6800
▁अशोक	-6801
____	-6802
▁दिई	-6803
्स	-6804
▁चाप	-6805
▁छाला	-6806
▁खरीद	-6807
khabar	-6808
▁५००	-6809
▁पावर	-6810
▁खेल्दै	-6811
ब्ब	-6812
▁सिँचाइ	-6813
▁सँ	-6814
▁कालि	-6815
,”	-6816
▁सुरेन्द्र	-6817
▁लिटर	-6818
▁मौन	-6819
▁राष्ट्रपतिको	-6820
▁जनताका	-6821
सुन	-6822
श्चिमा	-6823
▁सापकोटा	-6824
सरकारी	-6825
▁अनुमो	-6826
▁ढिलो	-6827
▁ख्याल	-6828
लगत्तै	-6829
दर्शी	-6830
▁सुनाए	-6831
आउ	-6832
▁स्कूल	-6833
▁शीर्षकहरु	-6834
▁थियौं	-6835
▁मालिक	-6836
▁निगरानी	-6837
▁किसानले	-6838
▁लाग्दा	-6839
▁पर्यटकको	-6840
कता	-6841
ारू	-6842
▁तालमेल	-6843
▁अड्	-6844
▁रेलमार्ग	-6845
▁परियार	-6846
od	-6847
▁महर्जन	-6848
▁त्रा	-6849
▁शुक्रवार	-6850
▁टोल	-6851
▁बाँडफा	-6852
▁पुनःनिर्माण	-6853
▁अभावमा	-6854
बमोजिम	-6855
▁खुलासा	-6856
▁क्रियाशील	-6857
▁लियो	-6858
▁राष्ट्रको	-6859
▁सुदृ	-6860
▁एसो	-6861
▁पुगि	-6862
▁दिँदा	-6863
▁हिन्दू	-6864
पर्व	-6865
▁प्रतिस्पर्धी	-6866
टिभ	-6867
ड्रि	-6868
▁चितवनको	-6869
▁लिइएको	-6870
▁करिव	-6871
▁दुब	-6872
▁कोरियाली	-6873
▁राम्रै	-6874
ट्टी	-6875
▁माग्	-6876
▁हटाउने	-6877
▁आवद्ध	-6878
▁कुँ	-6879
▁बोल	-6880
▁गे	-6881
▁तिमीलाई	-6882
▁असन्तुष्टि	-6883
▁वैकल्पिक	-6884
▁संयोजन	-6885
▁कटौती	-6886
▁८८	-6887
▁पढा	-6888
ुरि	-6889
▁सुशील	-6890
▁औषधी	-6891
▁क्रो	-6892
▁पदक	-6893
▁अखिल	-6894
▁पार्टीलाई	-6895
ण्डको	-6896
▁अन्यो	-6897
▁बू	-6898
▁फरा	-6899
▁बन्नु	-6900
▁जाडो	-6901
▁बेइ	-6902
भाष	-6903
▁बन्छ	-6904
ालगायत	-6905
▁क्षण	-6906
▁ढिला	-6907
▁सोलु	-6908
टाम	-6909
▁सरसफाइ	-6910
नयाँ	-6911
▁मनि	-6912
▁चितवनमा	-6913
▁झड	-6914
सूची	-6915
▁नमिल्	-6916
▁बिषयमा	-6917
▁कुटपिट	-6918
▁चीनमा	-6919
▁अनशन	-6920
▁टेक्	-6921
▁धम्की	-6922
lo	-6923
गडा	-6924
▁रोजगारीका	-6925
▁विपरीत	-6926
▁सरकारबाट	-6927
▁न्यूनीकरण	-6928
ut	-6929
::	-6930
▁वु	-6931
▁वाग्	-6932
▁सिंगा	-6933
▁पठाउनु	-6934
आवासीय	-6935
▁बाघ	-6936
▁दैलेख	-6937
▁तिर्न	-6938
जाको	-6939
विराज	-6940
▁रूपै	-6941
धर	-6942
▁अटो	-6943
▁युएई	-6944
▁७१	-6945
▁विश्वकै	-6946
▁मिले	-6947
▁बिकास	-6948
▁ठेगा	-6949
▁भ्रमणका	-6950
▁जोगाउन	-6951
▁खपत	-6952
भाषा	-6953
▁गिरि	-6954
▁राजनैतिक	-6955
▁विभागको	-6956
▁पुष	-6957
▁नबुझ	-6958
▁शास्त्र	-6959
▁क्वारेन्	-6960
▁खासगरी	-6961
▁भाइरल	-6962
▁निवासी	-6963
▁६७	-6964
▁चिन्ह	-6965
चाहिँ	-6966
▁नेपालीमा	-6967
▁कार्यसमिति	-6968
▁परिसर	-6969
▁कौ	-6970
▁शल्य	-6971
▁सर्वेक्षण	-6972
▁आर्जन	-6973
▁एसपी	-6974
नुपर्दछ	-6975
▁बन	-6976
फाई	-6977
▁प्रालि	-6978
//	-6979
▁बजारको	-6980
न्याय	-6981
▁निर्देशिका	-6982
ेलमा	-6983
्ररी	-6984
▁२०७१	-6985
मुनि	-6986
gmail	-6987
▁येश	-6988
रोग	-6989
जनी	-6990
▁प्राधिकरणका	-6991
▁उपप्रधानमन्त्री	-6992
▁उज्यालो	-6993
▁रोचक	-6994
▁बुझाएको	-6995
प्ती	-6996
▁रोनाल्डो	-6997
ँट	-6998
र्देशक	-6999
▁अरुण	-7000
▁लोडसे	-7001
▁नवराज	-7002
▁नमूना	-7003
▁उत्पादक	-7004
स्थलमा	-7005
सायी	-7006
▁सुरक्षाकर्मी	-7007
▁गहिरो	-7008
▁विरोधमा	-7009
णु	-7010
▁फेसबुकमा	-7011
▁चामल	-7012
▁पं	-7013
▁सिजन	-7014
▁गर्नेलाई	-7015
्छु	-7016
▁परेर	-7017
▁दशैँ	-7018
लस	-7019
▁पठाइएको	-7020
▁पाएपछि	-7021
▁८४	-7022
▁रेमि	-7023
▁क्षेत्रफल	-7024
काएर	-7025
▁राह	-7026
नयन	-7027
▁आउँदो	-7028
▁त्यसबेला	-7029
प्ट	-7030
▁धितोपत्र	-7031
▁अन्ध	-7032
▁मनाङ	-7033
▁उपयोगी	-7034
▁गराइएको	-7035
▁जगत	-7036
▁आइसोले	-7037
▁प्रादेशिक	-7038
▁हतार	-7039
▁निषेध	-7040
▁(1	-7041
▁अनिल	-7042
▁तस्करी	-7043
उदै	-7044
▁प्राध्यापक	-7045
▁समाजले	-7046
▁अह	-7047
▁पोलि	-7048
हाम्रो	-7049
गरि	-7050
ष्कार	-7051
स्टा	-7052
नियाँ	-7053
▁बजेटको	-7054
वायु	-7055
▁महामन्त्री	-7056
स्न	-7057
tp	-7058
ें	-7059
▁पुनले	-7060
▁झनै	-7061
▁सतह	-7062
▁भरमा	-7063
▁रोजगारीको	-7064
▁नामावली	-7065
हको	-7066
▁शासक	-7067
▁मन्त्रिपरिषद्को	-7068
▁दाँ	-7069
जन्तु	-7070
▁बन्ध	-7071
▁दैनिकमा	-7072
▁सहुल	-7073
▁होटलमा	-7074
अभि	-7075
▁अनलाईन	-7076
पया	-7077
ाधीन	-7078
▁सिस्ट	-7079
▁देउवाको	-7080
▁केशव	-7081
ालमा	-7082
▁मिल्दैन	-7083
▁आफैले	-7084
▁उत्तरी	-7085
▁प्रदर्शनी	-7086
डिएको	-7087
▁प्रस्तुति	-7088
▁साहित्यिक	-7089
http	-7090
▁सट्टा	-7091
▁धादिङ	-7092
▁नेत्र	-7093
▁एयरलाइ	-7094
▁अफर	-7095
प्रेषण	-7096
▁स्वास्थ्यकर्मी	-7097
▁दिदै	-7098
कहाँ	-7099
▁२०७०	-7100
▁ढिलाइ	-7101
▁बेल्ज	-7102
▁डटक	-7103
स्मा	-7104
▁ताप्ले	-7105
▁प्रयत्न	-7106
०६	-7107
▁फर्किएका	-7108
परित	-7109
▁संसारमा	-7110
ण्डमा	-7111
▁श्रद्धा	-7112
▁२०१९	-7113
▁प्रचण्डको	-7114
▁एल्	-7115
▁बस्त	-7116
पुरा	-7117
कालको	-7118
▁सदस्यमा	-7119
तपा	-7120
▁बिद्य	-7121
▁अभियोगमा	-7122
निज	-7123
▁मूल्यांकन	-7124
▁अवस्थित	-7125
▁जापानमा	-7126
▁प्रयोगमा	-7127
ञ्जा	-7128
://	-7129
Nepal	-7130
िङ	-7131
▁ठोस	-7132
▁अमर	-7133
▁महानिरीक्षक	-7134
▁काङ्ग्रेस	-7135
▁पात	-7136
ँचा	-7137
▁संयोजकत्वमा	-7138
खास्त	-7139
▁औसत	-7140
▁एजे	-7141
ेकाले	-7142
▁खतिवडाले	-7143
स्तरमा	-7144
▁स्तरमा	-7145
▁हिस्सा	-7146
▁नीतिगत	-7147
uary	-7148
ँु	-7149
▁तिनै	-7150
▁रहर	-7151
▁अक्ष	-7152
मिता	-7153
▁खोल्ने	-7154
काठमाडौं	-7155
▁व्यापारिक	-7156
▁विक्रम	-7157
▁अपि	-7158
एमई	-7159
▁सहारा	-7160
▁विरामी	-7161
▁राजविराज	-7162
▁लहर	-7163
▁विषा	-7164
▁विदेशबाट	-7165
▁रोक्	-7166
▁फैला	-7167
▁परिक्षण	-7168
▁ध्यानमा	-7169
▁निक्षेप	-7170
याको	-7171
▁ओभर	-7172
▁कार्ययोजना	-7173
▁गभ	-7174
▁भनेपछि	-7175
▁नोक्स	-7176
▁लिई	-7177
▁Au	-7178
▁संवाददाता	-7179
▁टुंग	-7180
▁सागर	-7181
▁पोर्टल	-7182
ुरेन्ट	-7183
▁खोज्दै	-7184
▁निजामती	-7185
▁स्वभाव	-7186
▁गइरहेको	-7187
संगै	-7188
▁प्रस	-7189
▁तस	-7190
▁भन्नुहुन्छ	-7191
तारी	-7192
धाई	-7193
▁घाँ	-7194
▁फारम	-7195
▁उम	-7196
▁e	-7197
rom	-7198
▁प्रदू	-7199
▁त्यहाँका	-7200
ँची	-7201
▁बिस्तारै	-7202
▁त्रिवि	-7203
२२	-7204
वरको	-7205
▁टिमले	-7206
▁जनमत	-7207
▁रहेन	-7208
▁सधै	-7209
▁स्याङ्	-7210
▁कोषाध्यक्ष	-7211
▁सारा	-7212
▁रुकुम	-7213
▁सामेल	-7214
▁सहयोगको	-7215
▁भेटि	-7216
▁फेर	-7217
▁६९	-7218
▁बैठकको	-7219
▁कागजात	-7220
▁आन्दोलनका	-7221
▁कालोपत्र	-7222
▁परिणत	-7223
▁कामलाई	-7224
▁दिनअघि	-7225
▁तीनै	-7226
घाखा	-7227
टनको	-7228
बापत	-7229
▁लाइफ	-7230
▁मनोनयन	-7231
▁पक्षको	-7232
▁छुट्टा	-7233
▁सुनसरी	-7234
▁उम्मे	-7235
▁राजकुमार	-7236
▁गैरआवासीय	-7237
▁आप्र	-7238
बिया	-7239
▁गाली	-7240
▁०७	-7241
▁प्राधिकरणको	-7242
▁नवलपरासी	-7243
▁डाय	-7244
छौं	-7245
▁मर्या	-7246
▁समावेशी	-7247
▁भाई	-7248
▁इटहरी	-7249
४५	-7250
इट	-7251
▁शेख	-7252
▁प्रान्त	-7253
▁प्रस्थान	-7254
▁बालबालिकालाई	-7255
▁निरी	-7256
▁वर्	-7257
▁छठ	-7258
▁हजारभन्दा	-7259
ya	-7260
खल	-7261
▁अञ्चल	-7262
▁article	-7263
▁जनस्वास्थ्य	-7264
▁राम्रोसँग	-7265
मोड	-7266
▁दौड	-7267
▁बेनी	-7268
▁आक्रोश	-7269
जिन	-7270
▁हुनुहुन्थ्यो	-7271
▁कम्पनीलाई	-7272
▁सेप्टेम्बर	-7273
▁बेलुका	-7274
२३	-7275
▁सुत्के	-7276
▁उद	-7277
▁दीर्घकालीन	-7278
मानी	-7279
▁भानु	-7280
▁घण्टामा	-7281
▁विस्थापित	-7282
रालो	-7283
▁हेम	-7284
▁श्याम	-7285
▁पारिएको	-7286
▁जिज्ञा	-7287
▁लिङ्क	-7288
▁महिनादेखि	-7289
▁डल	-7290
▁प्रत्या	-7291
▁मध्यम	-7292
वटै	-7293
स्कृत	-7294
▁आफुलाई	-7295
▁सवार	-7296
▁परिचित	-7297
▁शक्तिको	-7298
▁वसन्त	-7299
▁पेज	-7300
▁भित्री	-7301
ञ्चित	-7302
▁बोलको	-7303
201	-7304
▁जन्मदिन	-7305
www	-7306
दैनन्	-7307
▁re	-7308
धनी	-7309
म्बार	-7310
▁आयल	-7311
▁गरेकाले	-7312
डीको	-7313
▁बस्नु	-7314
▁नराख	-7315
भौ	-7316
▁विरोधी	-7317
▁12	-7318
▁सकिन	-7319
▁पुगेपछि	-7320
.....	-7321
▁संसद्मा	-7322
▁महँगो	-7323
▁सदस्यले	-7324
स्मिक	-7325
विश्वास	-7326
▁मान्ने	-7327
▁अभिलेख	-7328
ण्ठ	-7329
हक	-7330
हरि	-7331
▁शिक्ष	-7332
▁इंग्	-7333
▁शृ	-7334
स्टार	-7335
▁फर्म	-7336
▁इतिहासमा	-7337
खे	-7338
वृ	-7339
▁ब्याटिङ	-7340
▁बगा	-7341
▁कस्ता	-7342
▁घट्यो	-7343
▁छोराछोरी	-7344
▁पत्रमा	-7345
हानी	-7346
भिर	-7347
ant	-7348
▁पूर्वप्रधानमन्त्री	-7349
कर्ण	-7350
▁शल्यक्रिया	-7351
टीका	-7352
▁दिनपछि	-7353
▁अत्यावश्यक	-7354
ालयमा	-7355
्यौं	-7356
▁महारा	-7357
▁महासंघको	-7358
▁गरेँ	-7359
▁ग्य	-7360
ेलिकप्टर	-7361
▁एम्बुलेन्स	-7362
▁भूमिकामा	-7363
▁मेची	-7364
▁शिला	-7365
▁स्तरो	-7366
▁सदा	-7367
▁घरबाट	-7368
जीकरण	-7369
▁सतर्क	-7370
गोलिक	-7371
टरमा	-7372
▁बचाउन	-7373
▁गुमाएका	-7374
▁प्रब	-7375
▁सामान्यतया	-7376
▁विपद्	-7377
नालाई	-7378
०७३	-7379
▁राज्यमन्त्री	-7380
▁अपरि	-7381
ानको	-7382
▁मास्क	-7383
▁उद्योगी	-7384
▁हुदा	-7385
अर्का	-7386
▁धमा	-7387
▁फराकिलो	-7388
▁सदु	-7389
▁तत्कालिन	-7390
▁थ्री	-7391
▁निमित्त	-7392
▁गी	-7393
▁भएकोमा	-7394
०००	-7395
▁मिलन	-7396
▁जलवायु	-7397
▁व्यवस्थापिका	-7398
ंखला	-7399
▁कुर्	-7400
▁हामीसँग	-7401
धाज्ञा	-7402
टले	-7403
ब्या	-7404
▁शरणा	-7405
▁आयोगमा	-7406
नियर	-7407
▁अक्सिजन	-7408
▁विश्वासको	-7409
▁२०१४	-7410
▁त्यसबाट	-7411
▁गराई	-7412
▁सुरक्षाका	-7413
▁हेक्टर	-7414
▁यसपाल	-7415
▁अपर	-7416
▁सोमवार	-7417
▁लगानीको	-7418
▁अर्याल	-7419
▁ग्याल	-7420
▁हेलिकप्टर	-7421
▁ठेगाना	-7422
▁नारायणगढ	-7423
▁सत्र	-7424
▁बेरोज	-7425
▁पारी	-7426
▁कागज	-7427
चाप	-7428
▁ढुक्क	-7429
▁तामाङले	-7430
▁क्लव	-7431
▁गतेको	-7432
▁मोदीले	-7433
▁सप्तरी	-7434
▁शान्त	-7435
▁दलहरु	-7436
▁अधिवक्ता	-7437
▁१९८	-7438
▁बिन्दु	-7439
▁खुल्	-7440
▁फार्म	-7441
▁भलिबल	-7442
▁हाफ	-7443
▁पाइप	-7444
पश्चा	-7445
▁चुनावको	-7446
▁बारम्बार	-7447
▁बास	-7448
वारण	-7449
▁गंगा	-7450
▁होइनन्	-7451
▁०५	-7452
ly	-7453
ff	-7454
▁प्रकोप	-7455
▁काठमाडाैं	-7456
▁प्रशासनिक	-7457
▁सम्हाल	-7458
▁इमा	-7459
लम्प	-7460
▁कुरो	-7461
चानक	-7462
▁स्वाभाविक	-7463
▁ट्रक	-7464
▁भोग्	-7465
▁जितेर	-7466
▁खानेकुरा	-7467
ब्बर	-7468
▁अस्तित्व	-7469
▁स्पे	-7470
४०	-7471
▁बुझ्ने	-7472
▁गराउँदै	-7473
▁एकेड	-7474
पुर्ण	-7475
▁मिलाउन	-7476
▁अस्थ	-7477
▁जुलाई	-7478
▁तिब्ब	-7479
▁आयोजकले	-7480
▁मानवअधिकार	-7481
▁अफ्रिका	-7482
▁परिवारमा	-7483
▁प्रसिद्ध	-7484
▁समाधानका	-7485
▁गठबन्धनका	-7486
कीय	-7487
▁पथ	-7488
▁एभर	-7489
मू	-7490
▁व्यहो	-7491
क्रान्ति	-7492
▁समि	-7493
▁पुरुषको	-7494
▁तसर्थ	-7495
▁टोलीको	-7496
सेन	-7497
▁नेपालमै	-7498
▁परिवर्तनको	-7499
▁सदुपयोग	-7500
▁महाकाली	-7501
▁ट्रया	-7502
▁जनतामा	-7503
▁मेहन	-7504
▁सकिँदैन	-7505
ेछा	-7506
▁शही	-7507
▁८२	-7508
▁बल्ल	-7509
▁परेपछि	-7510
जीवी	-7511
र्भिक	-7512
भाग्य	-7513
फु	-7514
नाइटेड	-7515
▁साविक	-7516
▁अर्घाखा	-7517
पिटल	-7518
▁गतेबाट	-7519
▁उत्सव	-7520
▁स्तरोन्न	-7521
▁:-	-7522
▁मुस्लिम	-7523
▁मर्	-7524
▁छक्का	-7525
▁बङ्ग	-7526
▁सिं	-7527
मूल्य	-7528
▁लगायतको	-7529
▁पल्	-7530
▁रङ्ग	-7531
▁संगै	-7532
▁तहले	-7533
▁सिलव	-7534
▁सक्नेछन्	-7535
▁परिचयपत्र	-7536
▁बजेर	-7537
▁तट	-7538
▁अचानक	-7539
▁जनाउँदै	-7540
▁पौडेलको	-7541
▁स्रोतका	-7542
▁खातामा	-7543
▁शिक्षामा	-7544
▁यसकारण	-7545
▁रनमा	-7546
खाना	-7547
▁भौगोलिक	-7548
▁पढ्नुहोस	-7549
वक	-7550
पछिको	-7551
▁गभर्न	-7552
▁गोष्ठ	-7553
▁दाउ	-7554
▁भ्रमणको	-7555
▁पाउँदा	-7556
▁तिनीहरूलाई	-7557
▁बरि	-7558
▁जीत	-7559
▁बेस	-7560
▁परिसू	-7561
▁स्तरीय	-7562
▁करा	-7563
▁धेरैजसो	-7564
▁ट्रान्स	-7565
▁विक्री	-7566
ज्ज	-7567
▁बेवास्ता	-7568
▁आराम	-7569
दश	-7570
▁कृष्णप्रसाद	-7571
न्दर्य	-7572
▁व्यवसायमा	-7573
▁नभएपछि	-7574
लान्	-7575
▁इम	-7576
▁अनुमोदन	-7577
▁लुगा	-7578
▁खुकु	-7579
पाठ	-7580
▁ठप्प	-7581
▁बिहानै	-7582
सबै	-7583
▁चिन	-7584
▁तरल	-7585
▁Jan	-7586
ुटि	-7587
▁मङ्गलबार	-7588
▁संजाल	-7589
▁बधाई	-7590
▁फौ	-7591
agar	-7592
▁तौल	-7593
▁Portal	-7594
▁बिरुवा	-7595
▁महेश	-7596
▁अन्त्यमा	-7597
गमती	-7598
▁तर्	-7599
▁निकायमा	-7600
बको	-7601
▁खसेको	-7602
ेटर	-7603
▁नत्र	-7604
लास	-7605
त्तिकै	-7606
्रीष्ट	-7607
▁पैदा	-7608
▁सदस्यता	-7609
▁विपक्ष	-7610
▁महानिर्देशक	-7611
▁गै	-7612
▁कार्यपालिका	-7613
▁]	-7614
▁किरा	-7615
▁लापर	-7616
▁लागतमा	-7617
▁उद्योगमा	-7618
नाल्ड	-7619
▁एन्ड्रो	-7620
▁डिग्री	-7621
▁उका	-7622
▁रोजगारीमा	-7623
▁बालुवाटारमा	-7624
▁व्र	-7625
टीले	-7626
▁अभिवृद्धि	-7627
▁चेतना	-7628
▁गर्दछु	-7629
▁विस्तारै	-7630
डल	-7631
▁पैदल	-7632
▁?’	-7633
▁गाँउ	-7634
▁जापानी	-7635
▁प्रकृया	-7636
▁अवकाश	-7637
▁जनवरी	-7638
दत्त	-7639
▁उठेको	-7640
▁रूपैयाँ	-7641
▁जिक	-7642
▁11	-7643
▁हिरो	-7644
,‘	-7645
▁आइतवार	-7646
▁जाजरको	-7647
▁अर्जेन्टि	-7648
बाँ	-7649
▁उपन्यास	-7650
सह	-7651
▁पाठ्यक्रम	-7652
▁घाम	-7653
▁इरान	-7654
सम्मत	-7655
▁आफैंले	-7656
टिन	-7657
▁झर	-7658
▁निषेधाज्ञा	-7659
▁क्लि	-7660
▁मुद्धा	-7661
ट्र	-7662
▁ठक्करबाट	-7663
▁कँ	-7664
▁रामेछा	-7665
▁हराउँदै	-7666
संर	-7667
▁पालन	-7668
▁सफ्	-7669
▁क्यामे	-7670
बाहिर	-7671
शरण	-7672
▁निवारण	-7673
▁बिषय	-7674
▁जवान	-7675
▁बराबरी	-7676
▁झण्डा	-7677
▁ल्	-7678
▁मूर्ति	-7679
▁ओलम्प	-7680
▁फाइल	-7681
▁रुपान्तरण	-7682
▁शाहीले	-7683
▁हजारौं	-7684
▁प्रस्तावित	-7685
▁आकस्मिक	-7686
▁नेपालीहरुको	-7687
▁लिगमा	-7688
▁सहुलियत	-7689
नाक	-7690
ेरिया	-7691
ँदैछ	-7692
▁हानि	-7693
▁लघुवित्त	-7694
▁ली	-7695
न्यजन्तु	-7696
पमान	-7697
▁नेवि	-7698
म्वर	-7699
▁अनियमितता	-7700
▁बौद्धिक	-7701
▁दवा	-7702
▁वरिपरि	-7703
▁८३	-7704
▁मिल्छ	-7705
▁परिमार्जन	-7706
▁अनुरुप	-7707
▁मिलेको	-7708
स्तिष्	-7709
▁पछ्या	-7710
▁यिनी	-7711
▁विमा	-7712
▁भोक	-7713
▁पक्षलाई	-7714
▁मलेसियामा	-7715
महि	-7716
▁गेट	-7717
▁सञ्चालनका	-7718
▁तीज	-7719
▁गम्	-7720
▁::	-7721
▁कुखुरा	-7722
▁प्रचारप्रसार	-7723
▁दिप	-7724
▁इले	-7725
ख्रा	-7726
▁पुरै	-7727
▁पोखराको	-7728
▁Ar	-7729
▁सुवास	-7730
▁विमानस्थलको	-7731
▁औषध	-7732
▁खोज्दा	-7733
्र्या	-7734
▁ब्ल	-7735
▁पुस्तकाल	-7736
ब्रु	-7737
▁कुराले	-7738
▁संघसंस्था	-7739
▁कता	-7740
▁झापाको	-7741
▁एसि	-7742
▁वेला	-7743
▁डोनाल्ड	-7744
▁अप्ठ्यारो	-7745
▁अभ्या	-7746
▁दरबन्दी	-7747
▁सौन्दर्य	-7748
▁हलमा	-7749
▁उद्यमी	-7750
▁19	-7751
▁द्वि	-7752
वरले	-7753
▁सम्भावित	-7754
▁सुब्बा	-7755
▁रक्सी	-7756
▁किस्ता	-7757
▁हस्	-7758
▁उल्लेख्य	-7759
▁सावधान	-7760
गोल	-7761
▁बक्स	-7762
▁नम्बरमा	-7763
▁लिम्बु	-7764
रहेकी	-7765
▁योग्यता	-7766
▁आयोजनाले	-7767
▁व्यवस्थापनमा	-7768
▁पुर्याएको	-7769
▁नदेखि	-7770
▁सफ्टव	-7771
▁ईमेल	-7772
▁ब्रो	-7773
▁घोषित	-7774
▁कमाउने	-7775
▁संचालनमा	-7776
age	-7777
▁पश्चात	-7778
▁असन्तुष्ट	-7779
ामक	-7780
▁मानिएको	-7781
▁०१	-7782
▁महासंघले	-7783
▁खोटाङ	-7784
▁दिमा	-7785
रोज	-7786
▁पुरानै	-7787
▁गई	-7788
▁जितेका	-7789
▁लोडसेडिङ	-7790
▁अनुवाद	-7791
▁इन्धन	-7792
वालीले	-7793
▁समुदायमा	-7794
पुरका	-7795
▁ढुङ्गा	-7796
▁बाबा	-7797
▁प्रवर्द्ध	-7798
▁प्रस्ट	-7799
सेवी	-7800
▁अग्नि	-7801
▁सडकखण्ड	-7802
▁उद्यम	-7803
▁कारोवार	-7804
▁निरु	-7805
▁गाउँका	-7806
पीओ	-7807
क्रि	-7808
म्या	-7809
▁गर्नुको	-7810
पाइ	-7811
▁परराष्ट्रमन्त्री	-7812
▁एड	-7813
स्टिक	-7814
▁छायांकन	-7815
सय	-7816
▁भवनमा	-7817
▁भोली	-7818
▁नाघ	-7819
र्पोर	-7820
▁आपसी	-7821
▁काला	-7822
▁जोशीले	-7823
▁मरि	-7824
याउन	-7825
▁नोभेम्बर	-7826
तर्फको	-7827
प्रदान	-7828
२४	-7829
▁शीत	-7830
▁सोझ	-7831
▁स्टक	-7832
पोखरी	-7833
▁एजेण्डा	-7834
.)	-7835
▁प्रेमी	-7836
▁ऋषि	-7837
▁मार्ने	-7838
▁नियमन	-7839
▁दमक	-7840
▁उनकी	-7841
▁पर्नेमा	-7842
▁डोज	-7843
▁खेलाडीको	-7844
▁राजधानीको	-7845
ियन्स	-7846
ारोपण	-7847
ख्	-7848
आन्दो	-7849
▁विश्वकपमा	-7850
लियो	-7851
▁डिस्	-7852
▁दार्चु	-7853
▁फुटबलको	-7854
”,	-7855
▁विकेटले	-7856
▁बत्ती	-7857
▁कोरियाको	-7858
▁मुलुकलाई	-7859
▁युनाइटेड	-7860
▁सम्पर्कमा	-7861
▁लोभ	-7862
▁खाएर	-7863
▁समुद्र	-7864
▁गर्नुस्	-7865
▁लेखेर	-7866
▁वीरगन्ज	-7867
▁प्रज्ञा	-7868
ाउँमा	-7869
▁शैलीमा	-7870
लेले	-7871
ेन्सन	-7872
▁नेदर	-7873
▁जोडिएका	-7874
▁नभएकाले	-7875
▁ज्वरो	-7876
▁शहरमा	-7877
प्या	-7878
▁लिगको	-7879
ेन्ज	-7880
ङ्ख	-7881
▁ज्ञवालीले	-7882
▁प्रकरणमा	-7883
ाराम	-7884
▁सच्या	-7885
▁जात्रा	-7886
▁बुझाउन	-7887
वधि	-7888
▁हुदैन	-7889
▁एभरे	-7890
▁सकेसम्म	-7891
▁मान्छेको	-7892
▁डरा	-7893
▁मोदीको	-7894
▁कार्यक्रमहरु	-7895
▁जग्गाको	-7896
▁प्रेरणा	-7897
टाएर	-7898
आउट	-7899
▁तीनवटा	-7900
▁चिनी	-7901
ल्यो	-7902
▁बीउ	-7903
▁राईको	-7904
▁सरस्व	-7905
▁सुत्केरी	-7906
▁मात	-7907
▁पोज	-7908
▁ट्रेड	-7909
▁आइपुग्	-7910
ड्दा	-7911
थली	-7912
▁नमिल्ने	-7913
▁अर्यालले	-7914
▁दिनका	-7915
▁हेटौँ	-7916
▁आस्था	-7917
▁भईरहेको	-7918
▁९६	-7919
▁महिलाहरु	-7920
▁अस्थिर	-7921
▁सहमतिमा	-7922
र्मु	-7923
▁बाहु	-7924
▁ट्रेलर	-7925
▁नेताहरूले	-7926
▁टिभी	-7927
▁मकै	-7928
▁८६	-7929
▁आमाले	-7930
नुको	-7931
▁देखेको	-7932
▁लिमिटेडले	-7933
धुरा	-7934
▁केजी	-7935
▁जग्गामा	-7936
our	-7937
▁विरुद्धको	-7938
ारको	-7939
धारी	-7940
ज्यू	-7941
▁साम्रा	-7942
▁कोषमा	-7943
▁उत्पादनको	-7944
21	-7945
▁सिधै	-7946
क्ष्मी	-7947
▁मधुमे	-7948
ठू	-7949
ड्य	-7950
टिस	-7951
▁समुदायलाई	-7952
▁आचारसं	-7953
▁जान्न	-7954
▁महासङ्घ	-7955
▁विवादमा	-7956
▁निर्भर	-7957
▁कम्पनीमा	-7958
▁आश्वास	-7959
▁प्रश्नको	-7960
▁सुवेदीले	-7961
▁हत्य	-7962
▁माओवादीको	-7963
▁राम्ररी	-7964
शो	-7965
▁’	-7966
▁धो	-7967
▁अपराधी	-7968
▁जोडेर	-7969
▁शरीरको	-7970
ग्रहण	-7971
▁गराएर	-7972
▁७९	-7973
▁रै	-7974
न्च	-7975
▁सेल्	-7976
▁सर्वाधिकार	-7977
▁परमेश्वरको	-7978
▁सवारीसाधन	-7979
▁खत्री	-7980
▁ग्यालरी	-7981
▁भाडामा	-7982
▁उत्साहित	-7983
ढुंगा	-7984
▁द्	-7985
▁नियन्त्रणका	-7986
▁लेखन	-7987
कवि	-7988
▁पठन	-7989
ेश्रो	-7990
▁राना	-7991
▁बाधा	-7992
▁बल्	-7993
▁छानविन	-7994
vie	-7995
▁बच्न	-7996
▁थपिएको	-7997
ङ्गी	-7998
क्षि	-7999
मिर	-8000
डोर	-8001
म्वा	-8002
▁स्रोतको	-8003
▁उच्चस्तरीय	-8004
ङ्का	-8005
▁नज	-8006
▁स्क	-8007
▁वैद्य	-8008
श्चर्य	-8009
▁लामाले	-8010
▁प्रतिनिधिसभाको	-8011
▁>	-8012
▁काठमाडौँमा	-8013
▁शान्तिपूर्ण	-8014
२८	-8015
▁थो	-8016
▁जित्	-8017
जुमा	-8018
दलीय	-8019
▁निवेद	-8020
धना	-8021
द्वय	-8022
▁सिलसि	-8023
जारी	-8024
▁प्रदूषण	-8025
▁अप्रिल	-8026
च्छा	-8027
सम्प	-8028
▁ब्यब	-8029
▁घाई	-8030
सहितका	-8031
▁हजारको	-8032
▁शहीद	-8033
प्रदेश	-8034
लय	-8035
▁अधिवेश	-8036
▁and	-8037
▁बनाउनुपर्ने	-8038
▁राजन	-8039
▁सेमिफाइनलमा	-8040
▁”	-8041
▁बिश्व	-8042
▁किसानलाई	-8043
काजी	-8044
▁फर्कने	-8045
▁आवासीय	-8046
▁निम्त्या	-8047
▁बिचार	-8048
▁होलान्	-8049
ang	-8050
▁सहकार्यमा	-8051
▁समक्ष	-8052
त्रि	-8053
▁ओटा	-8054
▁पढेर	-8055
यिक	-8056
छन	-8057
▁सुनिल	-8058
▁प्याकेज	-8059
▁अभियानको	-8060
▁चलाएको	-8061
▁कामदारको	-8062
▁परमेश्वर	-8063
▁स्मार्टफोन	-8064
▁चिन्त	-8065
▁सहजीकरण	-8066
▁परिसूचक	-8067
▁गठबन्धनले	-8068
▁रोक्ने	-8069
▁मेलम्ची	-8070
▁आद	-8071
▁Sam	-8072
▁सूचनाको	-8073
▁आयोजनाका	-8074
द्रिक	-8075
चरण	-8076
बाजी	-8077
▁सक्दैनन्	-8078
▁हुम्	-8079
▁पुलिस	-8080
▁हुनै	-8081
▁नदिएको	-8082
▁मापन	-8083
▁घुम्न	-8084
▁लेखनाथ	-8085
सतमा	-8086
▁प्रचलन	-8087
▁पिता	-8088
▁महिनापछि	-8089
▁थिइन	-8090
▁बताएकी	-8091
▁कसको	-8092
▁एजेन्	-8093
▁तेश्रो	-8094
▁क्लबले	-8095
चाई	-8096
▁विकृति	-8097
▁८१	-8098
▁मस्तिष्	-8099
▁वन्यजन्तु	-8100
मेट	-8101
▁स्थितिमा	-8102
▁गरेपनि	-8103
२१	-8104
▁जिकिर	-8105
▁सल्यान	-8106
▁उत्पादित	-8107
▁तिवारी	-8108
ंकी	-8109
▁अर्ध	-8110
लोमा	-8111
▁बुढ	-8112
▁कुमारी	-8113
▁ख्रीष्ट	-8114
▁जर्मनी	-8115
▁अध्ययनरत	-8116
▁निमा	-8117
▁कर्पोर	-8118
▁आश्चर्य	-8119
▁कोषको	-8120
▁उल्लं	-8121
▁मार	-8122
▁देखिन्छन्	-8123
▁अन्ततः	-8124
बुल	-8125
▁तपाइको	-8126
▁देखाएर	-8127
▁एप्	-8128
दिनु	-8129
▁बेलायती	-8130
तेको	-8131
्रल	-8132
मर	-8133
फ्र	-8134
कोटमा	-8135
bout	-8136
▁समाजवाद	-8137
▁रहँदै	-8138
बिच	-8139
पहि	-8140
▁गठित	-8141
▁होस	-8142
रोप	-8143
हना	-8144
▁लगेर	-8145
७८	-8146
▁पोर्चु	-8147
▁बहिनी	-8148
भित्रका	-8149
▁हरियो	-8150
▁सुधारका	-8151
सभ	-8152
▁विन्ड	-8153
▁आर्मी	-8154
▁सञ्चारकर्मी	-8155
ेनन्	-8156
▁अर्कै	-8157
▁लिम्ब	-8158
र्षिको	-8159
▁निष्पक्ष	-8160
▁भएँ	-8161
▁नवीन	-8162
▁खेलाडीले	-8163
▁आर्य	-8164
▁आईतवार	-8165
▁गर्नुका	-8166
नासाथ	-8167
▁होईन	-8168
▁छोरीको	-8169
धम	-8170
लेपछि	-8171
▁गृहकार्य	-8172
▁खटिएका	-8173
किङ्ग	-8174
▁ताली	-8175
▁अन्र्त	-8176
▁सफाइ	-8177
▁चाडपर्व	-8178
▁प्रणालीको	-8179
▁प्रयोजन	-8180
▁अवतरण	-8181
▁मैन	-8182
▁९३	-8183
▁सहिद	-8184
▁पन्तको	-8185
▁चाहे	-8186
वले	-8187
▁फोहर	-8188
▁गोदा	-8189
▁विद्यमान	-8190
▁साइकल	-8191
▁निशुल्क	-8192
न्डा	-8193
▁भुमिका	-8194
▁चरा	-8195
▁प्रवि	-8196
▁लक्ष्मण	-8197
स्रोत	-8198
▁एकदम	-8199
▁देखिँदैन	-8200
▁माधवकुमार	-8201
▁कूटनीतिक	-8202
दर्शन	-8203
▁अपिल	-8204
▁मानिने	-8205
राज्य	-8206
▁गाइ	-8207
▁सबैका	-8208
ड्स	-8209
▁जुत्ता	-8210
ग्लिन	-8211
▁शताब्दी	-8212
▁पश्चिमा	-8213
म्पमा	-8214
▁गोल्डक	-8215
▁पराजुली	-8216
▁हत्यारा	-8217
त्रो	-8218
▁सन्तुल	-8219
फर्म	-8220
▁जानेछ	-8221
▁खोलामा	-8222
▁जीवनका	-8223
िकृत	-8224
▁सार्ब	-8225
▁अक्टोबर	-8226
▁दिनमै	-8227
▁सुरुङ	-8228
सम्पर्क	-8229
तर्फी	-8230
▁ब्याजदर	-8231
▁वान	-8232
▁छापि	-8233
▁निरीक्षण	-8234
▁18	-8235
▁पल	-8236
र्कि	-8237
▁दोब्बर	-8238
▁गुरुङको	-8239
▁अनौठो	-8240
▁गम्भिर	-8241
▁तापक्रम	-8242
▁निकाल्न	-8243
▁लामिछानेले	-8244
बिना	-8245
▁संस्थालाई	-8246
▁कोरियामा	-8247
▁समृद्धिका	-8248
lic	-8249
▁पदका	-8250
▁देशभरका	-8251
▁जानकार	-8252
▁एन्फा	-8253
▁नाकाबन्दी	-8254
▁सज	-8255
▁लाखौं	-8256
▁स्याउ	-8257
विक्रम	-8258
▁घन	-8259
▁युवालाई	-8260
न्दार	-8261
▁प्रजातान्त्रिक	-8262
सुर	-8263
२६	-8264
▁अश्	-8265
▁हाराहारीमा	-8266
▁बढ्नु	-8267
▁भूभाग	-8268
▁भुटान	-8269
▁सक्छौं	-8270
▁घाईते	-8271
०५	-8272
▁गरौँ	-8273
▁किन्ने	-8274
▁विष्टले	-8275
▁भन	-8276
बुद्ध	-8277
▁गिरा	-8278
▁कार्यलाई	-8279
▁तिनको	-8280
हुँदै	-8281
बहिनी	-8282
▁काँग्रेसले	-8283
मुक्ति	-8284
लम	-8285
▁उर्	-8286
वर्ग	-8287
▁तत्कालै	-8288
जम	-8289
▁९४	-8290
▁सपथ	-8291
▁स्वाद	-8292
ोने	-8293
▁प्रहरीमा	-8294
▁एनआरएनए	-8295
▁सामग्र	-8296
हिन	-8297
िकन	-8298
▁स्थाय	-8299
ate	-8300
▁अनुसन्धानमा	-8301
ाउनको	-8302
▁साँच्चै	-8303
▁फाइनान्स	-8304
न्तिक	-8305
▁बाढीले	-8306
कालिन	-8307
▁कष्ट	-8308
▁दिपक	-8309
▁अर्बको	-8310
▁सदस्यहरु	-8311
▁टस	-8312
▁भट्टले	-8313
्नुपर्ने	-8314
▁झि	-8315
▁विश्वकर्मा	-8316
▁रनले	-8317
esh	-8318
▁सुरेश	-8319
▁ओलम्पिक	-8320
▁हल्का	-8321
▁फला	-8322
▁लम्स	-8323
▁कलेजमा	-8324
▁घटनास्थल	-8325
▁नगरे	-8326
▁अनुगम	-8327
▁बस्तु	-8328
▁राज्यका	-8329
▁रेश	-8330
▁नामको	-8331
▁देख्दा	-8332
▁सिद्धार्थ	-8333
छाम	-8334
▁कार्यदल	-8335
ुलु	-8336
▁अग्रसर	-8337
▁प्रतिफल	-8338
कारको	-8339
ीन	-8340
▁पौष	-8341
फिया	-8342
▁डोल्पा	-8343
▁झन	-8344
▁तेज	-8345
10	-8346
▁नगर्नु	-8347
▁बुटव	-8348
▁पहलमा	-8349
▁Y	-8350
▁मन्तव्य	-8351
▁मुनाफा	-8352
श्मा	-8353
▁स्नातक	-8354
▁शर्माको	-8355
▁सम्मेलनको	-8356
og	-8357
▁घरपरिवार	-8358
▁लन्ड	-8359
▁*	-8360
▁समापन	-8361
▁घेरा	-8362
▁छात्रा	-8363
ञ्जु	-8364
ङ्गले	-8365
▁लगाउनु	-8366
▁नसक्नु	-8367
▁बाख्रा	-8368
▁शर	-8369
▁मृग	-8370
▁महिनाभित्र	-8371
देन	-8372
प्च	-8373
▁ब्रान्ड	-8374
▁पब्लिकेस	-8375
▁समुदायले	-8376
▁नसक	-8377
▁परिकल्पना	-8378
खुम्	-8379
▁खुद	-8380
ाचार	-8381
▁वस्तुको	-8382
▁रोकथाम	-8383
▁एशो	-8384
▁पटकपटक	-8385
▁सता	-8386
▁जुम्ला	-8387
▁बिरामीलाई	-8388
▁कठि	-8389
▁माओवादीका	-8390
▁कार्यान्वयनको	-8391
सिएसन	-8392
▁कारागार	-8393
▁परीक्षामा	-8394
anc	-8395
▁एप्प	-8396
▁कार्यान्वयनका	-8397
▁आखिर	-8398
▁बाक्	-8399
▁जाम	-8400
▁कोट	-8401
▁वामदेव	-8402
▁निकास	-8403
▁पट	-8404
▁थप्	-8405
▁राष्ट्रपतिले	-8406
▁संक्रमणको	-8407
दिव	-8408
https	-8409
▁जिप	-8410
▁प्रशासकीय	-8411
▁८७	-8412
▁म्याने	-8413
▁सहरमा	-8414
बन	-8415
▁नसकेका	-8416
▁फेब्रु	-8417
▁सद्भाव	-8418
▁बागमती	-8419
चल	-8420
▁पायो	-8421
▁उद्योगको	-8422
▁चाहन्छन्	-8423
िनको	-8424
▁अन्यत्र	-8425
▁आश्वासन	-8426
अर	-8427
जल	-8428
▁खानी	-8429
▁सार्वभौ	-8430
राही	-8431
▁कुराहरू	-8432
रहित	-8433
▁गरेन	-8434
▁रही	-8435
▁९२	-8436
▁माओ	-8437
pr	-8438
▁the	-8439
▁सन्दि	-8440
▁रजि	-8441
षक	-8442
▁गैरका	-8443
▁त्रै	-8444
थोकी	-8445
▁छोराको	-8446
▁शरणार्थी	-8447
धाना	-8448
▁आलु	-8449
▁देउवालाई	-8450
▁दुईजना	-8451
▁लिनुपर्ने	-8452
▁राप्ती	-8453
क्व	-8454
▁संगठनको	-8455
▁व्यवहारमा	-8456
▁विद्यालयले	-8457
▁असा	-8458
▁स्थायित्व	-8459
वाहक	-8460
▁मान्न	-8461
फ्ले	-8462
ड्रिड	-8463
▁विन्दु	-8464
▁प्रदायक	-8465
जीले	-8466
▁भण्डारण	-8467
▁मुलु	-8468
▁छुटाउनु	-8469
▁एमसीसी	-8470
▁जनचेत	-8471
▁तापनि	-8472
▁इस्	-8473
▁न्यौपानेले	-8474
▁लुक	-8475
▁शत्रु	-8476
जस्ती	-8477
▁हाउस	-8478
ust	-8479
उनुभयो	-8480
▁पाउनेछन्	-8481
रेड	-8482
▁म्याच	-8483
▁बिरुद्ध	-8484
▁लगायतले	-8485
▁यसैले	-8486
▁बन्दा	-8487
▁15	-8488
▁एक्का	-8489
▁शिल्	-8490
▁पैसाको	-8491
▁सकिन्न	-8492
मोहन	-8493
▁गैरसरकारी	-8494
▁कार्यालयबाट	-8495
▁उनकै	-8496
▁अनसन	-8497
▁कथ	-8498
▁धमाधम	-8499
गान	-8500
▁झडप	-8501
▁नपाइने	-8502
▁सार्बजनिक	-8503
चौर	-8504
▁सहजै	-8505
खुम्बु	-8506
०३	-8507
डेल्	-8508
▁निकालिएको	-8509
▁भारतलाई	-8510
▁भेटमा	-8511
उनुपर्छ	-8512
▁पदको	-8513
वु	-8514
गृह	-8515
▁विनिमय	-8516
▁उम्मेदवारको	-8517
▁ठग	-8518
▁मिर्ग	-8519
▁घोषणापत्र	-8520
▁परिवेश	-8521
▁विपरित	-8522
▁सफ्टवेयर	-8523
▁कुनैपनि	-8524
माथिको	-8525
▁टोलीका	-8526
टाएको	-8527
▁झगडा	-8528
▁मधुमेह	-8529
▁शिर्ष	-8530
▁नेपालकै	-8531
ँगा	-8532
▁सुदृढ	-8533
▁आउँछन्	-8534
▁साताको	-8535
▁मान्छेले	-8536
▁किनकी	-8537
▁बढ्नेछ	-8538
▁सापकोटाले	-8539
▁कायमै	-8540
▁वक्त	-8541
विरमा	-8542
▁चलखेल	-8543
▁काउन्सि	-8544
▁हुनुको	-8545
▁संशोधनको	-8546
▁निर्देशनमा	-8547
▁पारस	-8548
▁८९	-8549
क्षिप्त	-8550
▁गर्नुपर्नेमा	-8551
तिय	-8552
▁नसकेपछि	-8553
केश	-8554
▁पेन	-8555
▁पात्रो	-8556
▁बिद्या	-8557
▁सुनुवाई	-8558
▁निष्कास	-8559
छिन	-8560
साना	-8561
▁रेष्ट	-8562
्र्यो	-8563
▁जिता	-8564
▁सुने	-8565
त्तिको	-8566
यरिङ	-8567
▁दाहालको	-8568
▁दूरी	-8569
▁न्यायिक	-8570
धक	-8571
▁बिर्ता	-8572
▁कोरियाले	-8573
र्दन	-8574
ौति	-8575
▁नवीकरण	-8576
▁बनाउँदा	-8577
▁अतिक्रमण	-8578
▁त्यहाँबाट	-8579
▁माग्ने	-8580
▁कमाइ	-8581
▁पाउँ	-8582
▁इलेक्ट	-8583
▁शहरी	-8584
▁रुपले	-8585
▁९१	-8586
▁नन्द	-8587
सामु	-8588
ंड	-8589
▁सिरिया	-8590
▁बीचको	-8591
विपरी	-8592
पार्	-8593
▁वाल	-8594
▁बाँच्न	-8595
▁पोखरी	-8596
▁हालतमा	-8597
▁बोहरा	-8598
खी	-8599
ंशिक	-8600
ओस्	-8601
▁जुवा	-8602
▁अर्काे	-8603
▁बिजनेस	-8604
दिप	-8605
घ्र	-8606
▁कोशी	-8607
▁हिड	-8608
▁त्रैमा	-8609
▁काठमाडौंका	-8610
▁नहोस्	-8611
▁समाचारमा	-8612
▁सबभन्दा	-8613
पदा	-8614
िएर	-8615
▁सरा	-8616
▁सक्दछ	-8617
▁तर्जुमा	-8618
कर्मीको	-8619
▁माइती	-8620
वसाय	-8621
▁एकातिर	-8622
▁सयौं	-8623
▁रहेकी	-8624
▁वार	-8625
▁गिरीले	-8626
▁संसद्को	-8627
तापूर्वक	-8628
▁#	-8629
काण्ड	-8630
▁मिलाएर	-8631
▁राष्ट्रियता	-8632
▁टेलिफोन	-8633
▁साझेदार	-8634
▁जानुपर्ने	-8635
▁अडि	-8636
▁नदीको	-8637
▁चिन्ति	-8638
ेन्टी	-8639
▁ब्यक्त	-8640
▁काठमाण्डौं	-8641
▁गिर	-8642
▁जोन	-8643
टेको	-8644
▁सांसदले	-8645
दले	-8646
▁युवक	-8647
▁महिनासम्म	-8648
छुट्	-8649
▁यम	-8650
▁Off	-8651
▁भवनको	-8652
um	-8653
▁एन्ड्रोइड	-8654
▁एकेडेमी	-8655
▁सक्नेछ	-8656
▁सक्नुहुनेछ	-8657
गामी	-8658
▁कुशल	-8659
▁दिइन्	-8660
▁चिर	-8661
▁गएरा	-8662
▁सार्क	-8663
▁२००७	-8664
▁रेस्ट	-8665
▁सुन्दा	-8666
▁तेह्र	-8667
▁पृथ्व	-8668
▁लालबाबु	-8669
▁बालकृष्ण	-8670
ताल	-8671
▁मातहत	-8672
▁कमला	-8673
▁देवकोटा	-8674
▁मर्ज	-8675
▁गरेकोमा	-8676
▁रवी	-8677
▁सिलि	-8678
▁चिन्तित	-8679
ंगीतिक	-8680
▁खेर	-8681
▁भण्डारीको	-8682
▁आफूहरु	-8683
ish	-8684
 ।’	-8685
▁कृपया	-8686
▁नेविसंघ	-8687
▁कच्चा	-8688
▁चाहनुहुन्छ	-8689
▁क्यास	-8690
राजा	-8691
▁सरस्वती	-8692
स्त्री	-8693
ल्नु	-8694
▁यज्ञ	-8695
▁विषयको	-8696
▁त्यहि	-8697
▁सेन्ट्रल	-8698
▁बाजु	-8699
▁उदयपुर	-8700
▁मेस्	-8701
▁मुआ	-8702
चालित	-8703
▁फुटबलमा	-8704
▁बेलायतमा	-8705
▁ट्वि	-8706
▁बुँदा	-8707
▁खेलेका	-8708
▁जनकपुरधाम	-8709
▁चम	-8710
▁निधि	-8711
ाल्ने	-8712
▁ऐनको	-8713
त्तम	-8714
९८	-8715
▁गोल्ड	-8716
▁पद्धति	-8717
▁राजतन्त्र	-8718
▁क्षेत्री	-8719
▁विवा	-8720
▁सचेतना	-8721
▁टेलिकमले	-8722
नजर	-8723
▁धोका	-8724
▁पाइँदैन	-8725
▁जीप	-8726
▁छात्रवृत्ति	-8727
▁नच	-8728
▁९७	-8729
सिएको	-8730
▁मेलामा	-8731
ेटी	-8732
समध्ये	-8733
akhabar	-8734
imal	-8735
▁लगाउँदै	-8736
▁दम्प	-8737
▁खेलाडीलाई	-8738
च्	-8739
४८	-8740
▁उप्रेती	-8741
▁परीक्षाको	-8742
ainik	-8743
▁नेताहरुको	-8744
मस	-8745
▁चाइ	-8746
▁धू	-8747
▁राखिएका	-8748
▁बुढाथोकी	-8749
▁जिन्दगी	-8750
▁खाडी	-8751
▁जागरण	-8752
द्धान्तिक	-8753
▁अलिकति	-8754
भावी	-8755
▁सांगीतिक	-8756
▁सानै	-8757
▁सम्ममा	-8758
▁प्रचलित	-8759
▁मर	-8760
▁बढेपछि	-8761
▁बाह्र	-8762
दिनँ	-8763
ृतमा	-8764
▁बुझाउने	-8765
▁वता	-8766
▁प्रेरित	-8767
मन्त्रालय	-8768
ंगे	-8769
▁अग्लो	-8770
▁लाग्नु	-8771
▁सम्झौतामा	-8772
▁वृत्त	-8773
▁तीमध्ये	-8774
▁भारतसँग	-8775
मोर्चा	-8776
▁आफ्	-8777
▁अवश्य	-8778
▁इन्स्योरेन्स	-8779
▁साई	-8780
▁मोडेल	-8781
▁गइ	-8782
स्टेक	-8783
ind	-8784
सभामुख	-8785
बादी	-8786
te	-8787
▁मेरी	-8788
▁प्रवासी	-8789
▁भय	-8790
▁सहरी	-8791
▁अनमो	-8792
▁कसलाई	-8793
▁च्यानल	-8794
▁हमला	-8795
ोजे	-8796
▁व्यवसायीको	-8797
▁to	-8798
चारु	-8799
▁by	-8800
▁हालको	-8801
▁महोत्सवमा	-8802
मशेर	-8803
जिर	-8804
▁रक्तदान	-8805
न्जा	-8806
▁घोराही	-8807
▁मध्यनजर	-8808
▁मन्त्रीको	-8809
▁फस	-8810
रहनु	-8811
▁अभिय	-8812
▁डटकम	-8813
▁कार्यको	-8814
ेडि	-8815
रहन्छ	-8816
▁पुरस्कृत	-8817
▁त्यहीँ	-8818
विरोध	-8819
▁डेभल	-8820
▁डडेल्	-8821
र्टर	-8822
▁विगतका	-8823
म्भव	-8824
▁नभएसम्म	-8825
▁अवस्थाको	-8826
लोजी	-8827
-0	-8828
▁काटि	-8829
▁सम्बन्धलाई	-8830
▁17	-8831
▁बताउनुहुन्छ	-8832
▁परिसरमा	-8833
▁बसन्त	-8834
▁जिज्ञासा	-8835
▁भित्रै	-8836
▁अमेरिकाका	-8837
▁यादवको	-8838
▁तुरुन्तै	-8839
राहा	-8840
टामिन	-8841
▁पछी	-8842
▁असुर	-8843
▁चिज	-8844
▁जीवित	-8845
▁भाष	-8846
▁किसानको	-8847
▁from	-8848
▁चल्न	-8849
▁देख्	-8850
▁मुम्बई	-8851
▁दिएकी	-8852
लान	-8853
▁गुज	-8854
▁पाहु	-8855
किम	-8856
लनाथ	-8857
▁केदार	-8858
▁प्रसंग	-8859
ver	-8860
▁भेद	-8861
वर्ती	-8862
▁रौतहट	-8863
▁बसपार्क	-8864
▁टोलीमा	-8865
▁महिनाअघि	-8866
ललाई	-8867
सकै	-8868
ight	-8869
▁२०१३	-8870
▁मूल्याङ्कन	-8871
▁पञ्जा	-8872
▁विशेषगरी	-8873
▁ज्वा	-8874
▁जोड्न	-8875
पाले	-8876
▁मुलुकी	-8877
▁शोक	-8878
सेना	-8879
▁दिशामा	-8880
▁आति	-8881
▁टिमको	-8882
ौटी	-8883
मीको	-8884
▁तस्विर	-8885
▁बेच्ने	-8886
▁उल्लंघन	-8887
▁मतपत्र	-8888
▁विनाश	-8889
ालीले	-8890
▁प्रमुखको	-8891
▁भूकम्पले	-8892
▁मानन्ध	-8893
▁साधनको	-8894
▁जनावर	-8895
▁पेरि	-8896
▁हेड	-8897
▁सीता	-8898
बीचमा	-8899
▁नेम्वा	-8900
▁भन्नेबारे	-8901
ठ्	-8902
ाइमा	-8903
छुट्टै	-8904
▁निर्माणाधीन	-8905
▁मौद्रिक	-8906
त्यस	-8907
▁दया	-8908
▁प्रमो	-8909
०७४	-8910
▁अबस्था	-8911
▁ट्याक्सी	-8912
▁ध्रु	-8913
▁याताया	-8914
▁व्यवस्थापनका	-8915
▁सक्छु	-8916
▁रुच	-8917
विज	-8918
▁प्रशोधन	-8919
▁तुलसीपुर	-8920
▁उठाएको	-8921
▁14	-8922
▁सवालमा	-8923
▁ग्रुप	-8924
▁प्रतिस्पर्धामा	-8925
▁सुमन	-8926
▁धनकुटा	-8927
▁प्रेममा	-8928
▁विभागमा	-8929
तालिका	-8930
त्रीले	-8931
▁संचालक	-8932
▁सोलुखुम्बु	-8933
▁परिमाण	-8934
▁आकां	-8935
▁अछाम	-8936
▁हेलि	-8937
▁सारेको	-8938
▁पश्चिमी	-8939
बेल	-8940
▁दण्ड	-8941
▁सालदेखि	-8942
र्षिकोत्सव	-8943
▁पारदर्शी	-8944
▁औचित	-8945
▁अरुको	-8946
▁प्रधानमन्त्रीलाई	-8947
▁कमाउन	-8948
▁सैद्धान्तिक	-8949
▁उखु	-8950
▁चिना	-8951
▁गच्छ	-8952
▁पोषण	-8953
.]	-8954
विवाह	-8955
▁लोका	-8956
▁सिद्ध	-8957
▁स्याङ्जा	-8958
र्नुहोस्	-8959
पृ	-8960
अगा	-8961
ेसि	-8962
आईजी	-8963
▁आजबाट	-8964
▁उक्	-8965
▁एमाओवादी	-8966
▁क्रिकेटमा	-8967
▁अध्ययनका	-8968
स्पो	-8969
▁पाटन	-8970
कुवा	-8971
▁दृढ	-8972
▁जैविक	-8973
▁च्याम्पियन्स	-8974
▁निष्काश	-8975
▁शिकार	-8976
▁नसके	-8977
▁दुर्गम	-8978
▁प्रधाना	-8979
▁कामहरु	-8980
त्यो	-8981
▁जापानको	-8982
▁पेसा	-8983
स्पति	-8984
▁उसका	-8985
▁निर्म	-8986
▁बैतडी	-8987
▁रोका	-8988
नियम	-8989
▁एसएल	-8990
▁ल्याए	-8991
▁मृत्युको	-8992
भ्या	-8993
▁माल्	-8994
▁बार्षिक	-8995
ुर्ण	-8996
▁थाइल्याण्ड	-8997
▁सहमतिको	-8998
▁वामपन्थी	-8999
▁h	-9000
▁बोलाएर	-9001
▁दुध	-9002
▁रसिया	-9003
निका	-9004
▁चाहा	-9005
▁कमाएको	-9006
▁तीर्थ	-9007
▁अपाङ्गता	-9008
विपरीत	-9009
▁उपत्यकाका	-9010
▁अनुसन्धानका	-9011
▁खट	-9012
▁मन्दिरको	-9013
▁पार्टीभित्र	-9014
▁नेतृत्वले	-9015
उहाँ	-9016
न्द्रा	-9017
▁खुल्ने	-9018
▁हेल्	-9019
▁हिमालयन	-9020
▁वो	-9021
▁स्तरको	-9022
व्यवस्था	-9023
▁अनौपचारिक	-9024
▁पक्षका	-9025
▁शोषण	-9026
▁बढाइएको	-9027
जति	-9028
▁नहुनु	-9029
▁निकाल्ने	-9030
▁क्षेत्रले	-9031
िनमा	-9032
▁पन्छ	-9033
▁बर्षमा	-9034
▁दिवसका	-9035
▁सत्तामा	-9036
▁नामा	-9037
▁पहिरोले	-9038
नेल	-9039
▁मुआब्जा	-9040
▁सकिए	-9041
केका	-9042
▁टोलीलाई	-9043
▁स्पेन	-9044
▁लण्ड	-9045
ुण	-9046
▁पुलि	-9047
▁सभ्य	-9048
न्दैन	-9049
▁राजि	-9050
▁बन्दी	-9051
▁कडाइ	-9052
▁अरुलाई	-9053
▁धेरैको	-9054
▁चुप	-9055
▁युवाको	-9056
▁जिल्लाबाट	-9057
ब्यु	-9058
▁छैट	-9059
▁मोटो	-9060
▁एयरलाइन्स	-9061
▁+	-9062
र्वेद	-9063
▁आइरहेका	-9064
ून	-9065
▁चाँडो	-9066
▁दाजुभाइ	-9067
▁सरि	-9068
▁महामारीको	-9069
डु	-9070
पेट	-9071
▁बालिकाको	-9072
पास	-9073
पीए	-9074
▁खाँचो	-9075
▁साहले	-9076
▁भिटामिन	-9077
np	-9078
▁जथा	-9079
योजित	-9080
▁बोर्डको	-9081
▁काफ्ले	-9082
पल	-9083
जिल्ला	-9084
▁सरसफाई	-9085
▁टुक्रा	-9086
ट्री	-9087
▁हड्	-9088
▁खर्	-9089
▁प्रदेशसभाको	-9090
▁औचित्य	-9091
▁चीनका	-9092
ङ्गे	-9093
▁देखिएपछि	-9094
▁दाम	-9095
बुटी	-9096
▁थाल्	-9097
क्रामक	-9098
▁प्रभा	-9099
कुटी	-9100
▁येशू	-9101
▁थापाथली	-9102
▁थपे	-9103
▁महानगरपालिकाले	-9104
▁बरिष्ठ	-9105
▁ग्री	-9106
▁अन्याय	-9107
▁सुनार	-9108
्नुपर्छ	-9109
▁संस्कृतिको	-9110
▁दसैँ	-9111
▁सिलसिलामा	-9112
दियो	-9113
▁टेस्ट	-9114
▁आजका	-9115
▁खाल्	-9116
रन	-9117
४६	-9118
▁आवत	-9119
▁फेब्रुअ	-9120
▁लागुऔषध	-9121
▁शिक्षकको	-9122
▁बनेपछि	-9123
▁सन्तुष्ट	-9124
▁वर्गको	-9125
▁माउ	-9126
▁मसँग	-9127
▁बढे	-9128
▁बराल	-9129
▁बेहो	-9130
▁निगमको	-9131
▁फर्केर	-9132
▁कँडेल	-9133
▁इच्छुक	-9134
▁माथिको	-9135
▁युनिकोडमा	-9136
▁सोधे	-9137
▁चौका	-9138
▁प्रतिशतसम्म	-9139
ग्न	-9140
िला	-9141
▁हेटौँडा	-9142
▁कं	-9143
▁सिंगापुर	-9144
▁उपाध्यक्षमा	-9145
▁नेपालीहरु	-9146
▁उमा	-9147
▁अविश्वास	-9148
म्मद	-9149
▁द्रु	-9150
▁दुव	-9151
▁प्लेट	-9152
▁थालनी	-9153
स्तरको	-9154
ow	-9155
▁हितमा	-9156
▁मोटरसाइक	-9157
▁फर्किने	-9158
▁अधिकारीहरुले	-9159
▁देखाइ	-9160
▁निराश	-9161
▁सिस्टम	-9162
▁लाखभन्दा	-9163
▁०८	-9164
▁सुरुवा	-9165
ाइँ	-9166
▁?'	-9167
▁ओखल	-9168
▁युक्र	-9169
मगर	-9170
▁लेन	-9171
▁भावी	-9172
▁कृष्णबहादुर	-9173
▁जीवनशैली	-9174
▁धरा	-9175
▁बिक्र	-9176
▁युरोपेली	-9177
▁महाशाखाले	-9178
भएको	-9179
प्रेर	-9180
▁खोल्नुहोस्	-9181
▁पुर्ण	-9182
गाह	-9183
▁साग	-9184
▁एपी	-9185
▁हेर्दै	-9186
▁बसाइ	-9187
▁हुला	-9188
पिडिया	-9189
▁राखिने	-9190
वन्ध	-9191
▁आरम्भ	-9192
▁कालिका	-9193
▁13	-9194
प्रेस	-9195
▁माने	-9196
संरचना	-9197
▁ढाँचा	-9198
▁ड्राइ	-9199
जका	-9200
ग्लै	-9201
▁१९६	-9202
▁मिडियामा	-9203
प्न	-9204
▁नाराका	-9205
▁जानुहोस्	-9206
▁गफ	-9207
▁बच्चाको	-9208
क्ष्य	-9209
▁रोहित	-9210
तीन	-9211
२०७५	-9212
▁तुला	-9213
▁चौतारी	-9214
▁वक्तव्य	-9215
!!	-9216
▁Sep	-9217
▁भुक	-9218
▁बिरा	-9219
▁भैसकेको	-9220
▁दिन्छन्	-9221
▁अध्यक्षको	-9222
▁पीडितलाई	-9223
▁अन्तरले	-9224
▁पानीमा	-9225
▁एभरेष्ट	-9226
ग्ग	-9227
▁ठोक्	-9228
अस	-9229
▁युनिभ	-9230
▁प्रतिशतभन्दा	-9231
▁सेनाका	-9232
▁16	-9233
▁लिम्बू	-9234
कर्मीले	-9235
ितीय	-9236
▁लोकतन्त्रको	-9237
▁गरें	-9238
▁बाग्	-9239
▁कतिपयले	-9240
▁अध्ययनले	-9241
▁बढाएर	-9242
▁महान्	-9243
चाँ	-9244
▁बालुवाटार	-9245
वरमा	-9246
▁सुचारु	-9247
▁सुखी	-9248
लेन	-9249
▁निराशा	-9250
▁समाचारको	-9251
▁ताम	-9252
▁धुलो	-9253
▁इन्चार्ज	-9254
▁संगठित	-9255
▁मेट्रिक	-9256
▁उनै	-9257
▁सम्पुर्ण	-9258
नुसार	-9259
मध्य	-9260
▁पत्राचार	-9261
▁ठाँ	-9262
▁नगरि	-9263
▁स्वतः	-9264
सङ्ख्या	-9265
▁रकमको	-9266
ौलाले	-9267
▁गरिनु	-9268
▁हैसियत	-9269
▁बझा	-9270
▁समितिलाई	-9271
▁घटेर	-9272
▁सोधि	-9273
▁पसलमा	-9274
▁सबैमा	-9275
▁२०१०	-9276
▁२०६४	-9277
▁राइ	-9278
▁शिलान्यास	-9279
▁रारा	-9280
▁फिफा	-9281
▁नेतालाई	-9282
आन्दोलन	-9283
▁बहुम	-9284
▁संचालित	-9285
दफा	-9286
▁लड्ने	-9287
▁चितवनका	-9288
सरी	-9289
▁साफ	-9290
सवर्ड	-9291
टिक	-9292
ालीमा	-9293
▁त्रास	-9294
▁क्यामेरा	-9295
▁मिलियन	-9296
▁लिँदै	-9297
▁भेष	-9298
▁समस्यालाई	-9299
ल्ली	-9300
▁पठाएका	-9301
▁बिग	-9302
▁थाह	-9303
▁रूपले	-9304
▁पुस्तकालय	-9305
▁मुलुकले	-9306
▁दलाल	-9307
▁क्याम	-9308
स्प	-9309
▁एकाएक	-9310
ष्टिक	-9311
न्जेल	-9312
▁हानी	-9313
▁बालकको	-9314
▁काँग्रेसको	-9315
▁साइन	-9316
▁बलात्	-9317
▁सेवाका	-9318
▁मालपो	-9319
▁सन्तुलन	-9320
त्रीको	-9321
▁दलहरुले	-9322
av	-9323
▁भरपर्	-9324
▁सेक	-9325
▁ताला	-9326
▁जसमध्ये	-9327
▁जसो	-9328
पर्धा	-9329
▁हुन्थे	-9330
▁योजनाको	-9331
▁प्रचण्डलाई	-9332
तरनाक	-9333
२७	-9334
▁पूर्णता	-9335
▁नजर	-9336
▁तहलाई	-9337
क्ताको	-9338
hi	-9339
▁निकायका	-9340
▁मेहनत	-9341
▁सिन्धुली	-9342
माको	-9343
▁विकिपिडिया	-9344
▁k	-9345
स्ले	-9346
अमेर	-9347
▁नहुन	-9348
▁गोकर्ण	-9349
▁चारै	-9350
▁प्रयोजनका	-9351
▁आशि	-9352
भिल	-9353
▁देख्ने	-9354
कोशी	-9355
▁नबि	-9356
▁हर्ष	-9357
▁गभर्नर	-9358
▁दुख्ने	-9359
▁प्रोजे	-9360
रानी	-9361
▁फागु	-9362
▁हत्याको	-9363
▁स्वरमा	-9364
▁भट्टराईको	-9365
ंै	-9366
▁केन्द्रबाट	-9367
▁दास	-9368
▁पाउँछन्	-9369
▁जनचेतना	-9370
▁स्तन	-9371
▁बिति	-9372
▁गिरावट	-9373
▁ट्र्या	-9374
▁विर	-9375
▁विषयवस्तु	-9376
▁महीना	-9377
▁एकदिव	-9378
▁राहदानी	-9379
▁मेलमिला	-9380
▁बन्दुक	-9381
▁युनिकोड	-9382
▁घुमा	-9383
▁टावर	-9384
▁गाडीमा	-9385
▁समाजसेवी	-9386
४१	-9387
▁अङ्ग	-9388
▁डिल्ली	-9389
▁समर्थक	-9390
▁नलाग्ने	-9391
ँदो	-9392
▁महिनावारी	-9393
▁आपसमा	-9394
▁संरचनामा	-9395
▁धनगढ	-9396
▁चलाइ	-9397
▁२०१२	-9398
िकै	-9399
▁एकअर्का	-9400
▁ग्राहकले	-9401
▁जबर	-9402
▁पञ्चायत	-9403
▁खुल्यो	-9404
▁लागेपछि	-9405
विज्ञ	-9406
लेखा	-9407
▁अन्तरगत	-9408
▁स्र	-9409
▁फुल	-9410
▁हदसम्म	-9411
▁बिरोध	-9412
पीको	-9413
▁2016	-9414
▁बनाउनका	-9415
▁टेवा	-9416
▁।...	-9417
▁स्थानको	-9418
▁अवलम्बन	-9419
▁प्यारा	-9420
▁समेटिएको	-9421
▁गर्व	-9422
▁छुट्टाछुट्टै	-9423
▁बानेश्वर	-9424
लामी	-9425
▁आश्रम	-9426
▁दर्शकले	-9427
निर्वाचित	-9428
▁आंशिक	-9429
▁संकटमा	-9430
ताप	-9431
बेर	-9432
दण्ड	-9433
▁सभाका	-9434
विना	-9435
▁अभियन्ता	-9436
▁ठाउँबाट	-9437
aya	-9438
▁शाहको	-9439
▁भोजपुर	-9440
▁आक्रमणमा	-9441
/0	-9442
▁The	-9443
▁चुर	-9444
▁घटाउन	-9445
▁रेग्मीले	-9446
▁अपमान	-9447
▁विभाजित	-9448
▁बोट	-9449
▁पर्छन्	-9450
▁बस्दा	-9451
▁अत्याधुनिक	-9452
▁देखाउँछ	-9453
▁कृषिमा	-9454
▁महोत्तरी	-9455
▁दलहरू	-9456
▁कहिलेकाहीँ	-9457
▁प्रत्यारोपण	-9458
▁आफनो	-9459
▁राशी	-9460
▁प्रर्द	-9461
▁खोजीमा	-9462
▁अफिस	-9463
▁निश	-9464
▁सुकु	-9465
agarik	-9466
▁मुखमा	-9467
▁खाइ	-9468
▁विष्	-9469
▁२०११	-9470
▁Posted	-9471
▁ब्रेक	-9472
▁व्यवस्थापनको	-9473
▁दस्ताव	-9474
▁खुलेर	-9475
▁झलनाथ	-9476
▁ग्रह	-9477
र्सन	-9478
▁बेच्न	-9479
हुन्छ	-9480
▁निकायलाई	-9481
▁सयभन्दा	-9482
▁खतरनाक	-9483
डेन	-9484
▁व्रत	-9485
दमा	-9486
▁खस्	-9487
▁शुभारम्भ	-9488
नर	-9489
▁आचारसंहिता	-9490
▁हुँदाहुँदै	-9491
▁शब्दको	-9492
▁स्थानीयको	-9493
▁g	-9494
▁दृष्टिले	-9495
▁खाँदा	-9496
▁लगाई	-9497
ालिटी	-9498
▁प्रतिष्ठा	-9499
▁गौरी	-9500
▁सँगसँगै	-9501
▁हिन्दी	-9502
७०	-9503
▁प्रतिशतको	-9504
▁निश्च	-9505
ठूला	-9506
▁भनिने	-9507
▁कार्यसमि	-9508
▁रुस	-9509
हेर्नु	-9510
भेन्ट	-9511
▁डलरको	-9512
oc	-9513
▁आश्र	-9514
▁यिनै	-9515
▁फाउन्ड	-9516
▁पर्यटकलाई	-9517
▁आयुर्वेद	-9518
▁परिक्षा	-9519
▁आगमन	-9520
▁छैनौं	-9521
तीले	-9522
▁अपांग	-9523
▁भोलिपल्ट	-9524
५१	-9525
▁रेमिट्या	-9526
▁विश्वकपको	-9527
फेर	-9528
▁तिमिल्	-9529
▁समग्रमा	-9530
यन्स	-9531
▁रिक्त	-9532
▁वर्षभन्दा	-9533
▁समसाम	-9534
▁उपदफा	-9535
▁आदानप्रदान	-9536
ँडामा	-9537
▁थारू	-9538
▁तिनका	-9539
र्मुस	-9540
▁Dec	-9541
त्स	-9542
▁सफलताको	-9543
▁रुपैयाँसम्म	-9544
▁डेभलप	-9545
कान्त	-9546
▁भर्न	-9547
▁अनिश्चित	-9548
▁डिएसपी	-9549
▁बोलपत्र	-9550
▁जेलमा	-9551
▁सुन्ने	-9552
▁लोग	-9553
प्रेम	-9554
धमा	-9555
▁अण्डा	-9556
▁झापामा	-9557
▁दायरामा	-9558
▁मिल्नेछ	-9559
▁निकासी	-9560
िँदै	-9561
▁दुनियाँ	-9562
▁तमु	-9563
▁संभावना	-9564
प्रभु	-9565
सात	-9566
यामा	-9567
▁बडा	-9568
▁कोइरालाको	-9569
▁r	-9570
डका	-9571
▁क्रिकेटको	-9572
▁इण्ड	-9573
▁तुलना	-9574
सिसी	-9575
स्वरुप	-9576
▁शुक्ल	-9577
▁करको	-9578
▁लगिएको	-9579
पेर	-9580
नुहुन्न	-9581
▁उठाएका	-9582
▁प्रतिलिपि	-9583
▁उही	-9584
▁पटकको	-9585
▁रंगशाला	-9586
▁सोसाइ	-9587
हाय	-9588
▁राज्यमा	-9589
▁अक्स	-9590
▁दस्तावेज	-9591
▁कसुर	-9592
▁हिमालय	-9593
▁आफ्नी	-9594
सीआर	-9595
▁खग	-9596
विज्ञान	-9597
फिल्	-9598
▁पोख्र	-9599
▁सना	-9600
▁शिविरमा	-9601
▁महोत्सवको	-9602
▁कफी	-9603
▁केसीलाई	-9604
▁दीपेन्द्र	-9605
▁महाअभि	-9606
▁खोजिएको	-9607
▁पासवर्ड	-9608
ers	-9609
▁लोकसेवा	-9610
न्यु	-9611
▁सक्दो	-9612
हीं	-9613
▁अट	-9614
खुवास	-9615
र्सले	-9616
▁अन्यथा	-9617
▁सौर्य	-9618
▁पृष्ठभूमि	-9619
घाटमा	-9620
ौता	-9621
▁n	-9622
बाटो	-9623
▁व्यवसायीलाई	-9624
▁तिनले	-9625
▁जोडिन	-9626
बित्तिकै	-9627
▁अमृत	-9628
▁पदबाट	-9629
▁सञ्चालनको	-9630
▁कानुनको	-9631
▁आजसम्म	-9632
▁भेटिएका	-9633
▁काउन्सिल	-9634
चिएको	-9635
▁खोजेका	-9636
▁चुनौति	-9637
▁कलम	-9638
▁पढाई	-9639
▁व्यवस्थाको	-9640
▁समेटेर	-9641
▁छोरो	-9642
▁एजेन्डा	-9643
बू	-9644
हाङ	-9645
▁मुद्दाको	-9646
ियल	-9647
▁टर्की	-9648
तीर्ण	-9649
▁सङ्गठ	-9650
▁पाटो	-9651
▁प्रतिद्व	-9652
▁ऐनमा	-9653
▁सकिएपछि	-9654
▁अँ	-9655
▁महाराज	-9656
▁टेलिकम	-9657
▁गर्दछौं	-9658
▁पाएँ	-9659
▁सर्वसम्मत	-9660
▁किनारमा	-9661
▁सम्बद्ध	-9662
▁बढेका	-9663
▁Aug	-9664
फ्तार	-9665
▁ब्रह्	-9666
पं	-9667
▁२०६३	-9668
▁नगर्दा	-9669
▁विवादित	-9670
▁विश्वस्त	-9671
वलोकन	-9672
पछी	-9673
खुवासभा	-9674
▁बताइन्छ	-9675
▁जनसङ्ख्या	-9676
▁बदर	-9677
▁लभ	-9678
हारिक	-9679
▁सातै	-9680
▁सिंगो	-9681
▁मानेर	-9682
▁उमेरका	-9683
▁स्थलमा	-9684
▁वार्तामा	-9685
):	-9686
▁बृ	-9687
▁बाँडफाँड	-9688
सुन्द	-9689
फरक	-9690
प्रयोग	-9691
▁निजगढ	-9692
▁2020	-9693
▁बुकिङ	-9694
▁उत्स	-9695
मिन	-9696
▁ठूल	-9697
▁स्मार	-9698
▁प्रथा	-9699
▁लमजुङ	-9700
▁आफूहरुले	-9701
▁प्राइ	-9702
▁छेउ	-9703
▁छाड्ने	-9704
त्रै	-9705
▁ललितपुरको	-9706
▁स्वास्थ्यका	-9707
▁तथापि	-9708
▁गच्छदार	-9709
▁विद्रोह	-9710
तेर	-9711
▁पिडित	-9712
ाउनुपर्छ	-9713
▁साक्षर	-9714
जिट	-9715
▁रस	-9716
▁फर्का	-9717
३८	-9718
▁भुकम्प	-9719
▁चन्दा	-9720
▁संगठनले	-9721
२०७४	-9722
▁२०६८	-9723
▁इजराय	-9724
न्मुख	-9725
▁र्या	-9726
▁फ्लो	-9727
रहेछ	-9728
वर्तमान	-9729
गंगा	-9730
▁सेती	-9731
हेर	-9732
▁आवको	-9733
▁रुसी	-9734
▁गुमाउने	-9735
▁सहयोगका	-9736
पुल	-9737
▁सरोज	-9738
▁सार्थ	-9739
▁यात	-9740
▁उनीसँग	-9741
ईले	-9742
▁राख्दा	-9743
▁शाक्यले	-9744
▁महाधिवेशनमा	-9745
▁सदस्यलाई	-9746
▁गर्छन	-9747
▁सम्प्रेषण	-9748
▁३००	-9749
▁रामप्रसाद	-9750
भेट	-9751
▁अर्थतन्त्रमा	-9752
▁महत	-9753
क्सिको	-9754
▁खर्चको	-9755
▁कलाकारको	-9756
▁उपाध्याय	-9757
▁चालकको	-9758
३५	-9759
▁फाउण्ड	-9760
आत	-9761
▁जथाभावी	-9762
▁चीज	-9763
▁समाचारहरु	-9764
▁निर्देशनालय	-9765
▁तीनजना	-9766
▁काठमाडौंबाट	-9767
▁सुन्तला	-9768
▁com	-9769
▁वचन	-9770
▁नआएको	-9771
▁सुनेर	-9772
लिप	-9773
ग्ध	-9774
▁छायाँ	-9775
▁पर्खाल	-9776
स्कृति	-9777
▁निवासमा	-9778
ालीको	-9779
▁तपाइँको	-9780
▁१५०	-9781
▁स्थलगत	-9782
धित	-9783
▁भइन्	-9784
▁नायव	-9785
▁सङ्गीत	-9786
BC	-9787
▁फौज	-9788
▁शरद	-9789
▁विद्रोही	-9790
▁वार्षिकोत्सव	-9791
▁जनमोर्चा	-9792
▁मजबु	-9793
पाको	-9794
▁कमिटीको	-9795
▁भरिएको	-9796
▁आपू	-9797
▁दिल	-9798
▁रायमा	-9799
▁अफगानिस्तान	-9800
▁आप्रवासी	-9801
र्पित	-9802
▁सकेर	-9803
▁फ्यान	-9804
▁करार	-9805
▁रवीन्द्र	-9806
सभामा	-9807
▁परीक्षणका	-9808
▁पाप	-9809
▁मद	-9810
▁लैजा	-9811
बाँकी	-9812
▁घरका	-9813
▁गाउँको	-9814
▁बिर्स	-9815
▁मानिसमा	-9816
▁हाते	-9817
▁च्याम्पियनसिप	-9818
▁भ्रष्ट	-9819
▁नम्वर	-9820
▁साँस्कृतिक	-9821
▁अर्थमा	-9822
▁गुप्ता	-9823
▁चोर	-9824
▁लिभर	-9825
बस	-9826
▁ठुला	-9827
▁२०६९	-9828
▁रिसो	-9829
▁जता	-9830
▁तीव्रता	-9831
▁पल्ट	-9832
▁रेस	-9833
▁गरेनन्	-9834
▁परिस्थितिमा	-9835
▁दूरस	-9836
रूद्ध	-9837
▁०९	-9838
नुनी	-9839
▁समसामयिक	-9840
न्दि	-9841
▁अदालतका	-9842
▁अनुशासन	-9843
▁प्लस	-9844
▁बित्तिकै	-9845
सकेकी	-9846
▁दाङमा	-9847
▁समयपछि	-9848
ist	-9849
▁फेल	-9850
▁थुनामा	-9851
▁दर्शकको	-9852
▁राजनि	-9853
▁नारायणी	-9854
▁भ्वा	-9855
▁थापालाई	-9856
▁बिज्ञ	-9857
▁हिरासतमा	-9858
▁कुरै	-9859
▁विदेशमन्त्री	-9860
बाल	-9861
▁वायुसेवा	-9862
▁पचा	-9863
▁ट्रि	-9864
शिया	-9865
▁तिर्ने	-9866
▁प्रधानाध्यापक	-9867
▁सन्तुलित	-9868
▁अडियो	-9869
▁हरायो	-9870
▁कालोपत्रे	-9871
▁सोच्न	-9872
▁बिष्ट	-9873
पञ्च	-9874
▁सांसदको	-9875
▁बसे	-9876
▁दूरसञ्चार	-9877
▁हप्तामा	-9878
▁सिधा	-9879
▁आईतबार	-9880
▁संक्षिप्त	-9881
▁निर्मित	-9882
▁दलीय	-9883
कोप्टर	-9884
▁बुहारी	-9885
▁दक्षिणी	-9886
▁अब्	-9887
▁संलग्नता	-9888
▁पत्रपत्रिका	-9889
▁गाँजा	-9890
न्ना	-9891
▁सुस्त	-9892
सियल	-9893
▁आइएमई	-9894
▁स्ट्र	-9895
चको	-9896
दिभ	-9897
 ।'	-9898
▁स्वास्थ	-9899
▁भक्तपुरमा	-9900
▁बेलुकी	-9901
५८	-9902
▁गर्नुपर्नेछ	-9903
▁प्रभावशाली	-9904
▁आमालाई	-9905
▁परिषद्को	-9906
▁राजनीतिको	-9907
▁टेलिकमको	-9908
▁ओरालो	-9909
मोचन	-9910
▁सिफारिश	-9911
दह	-9912
▁तिमीले	-9913
जू	-9914
▁सिकाइ	-9915
▁हौँ	-9916
▁जुटाउन	-9917
▁Ch	-9918
▁लडाइँ	-9919
▁गरिँदै	-9920
▁तोडफो	-9921
24	-9922
▁दायरा	-9923
घाती	-9924
▁बढीमा	-9925
प्रो	-9926
म्मत	-9927
उनुहोस्	-9928
एकै	-9929
▁स्टोर	-9930
▁दूर	-9931
▁तिनलाई	-9932
▁विश्वस	-9933
शू	-9934
▁समर्पित	-9935
प्ति	-9936
▁रामेछाप	-9937
▁लौ	-9938
char	-9939
विचार	-9940
▁जंगल	-9941
ख्यक	-9942
▁परिकार	-9943
▁लेख्नु	-9944
▁कार्कीको	-9945
घोष	-9946
▁ज्याला	-9947
▁इन्डोने	-9948
▁लगेको	-9949
▁भिडन्त	-9950
▁सचिवालयले	-9951
▁संविधानसभाको	-9952
ञ्जली	-9953
▁मोर्चाले	-9954
▁पाउँछ	-9955
▁हँु	-9956
बिधान	-9957
लिखेल	-9958
▁खल	-9959
▁भेरी	-9960
सभापति	-9961
ead	-9962
▁एसएसपी	-9963
▁कक्षामा	-9964
▁शीर्षकमा	-9965
▁सम्मि	-9966
▁ओपन	-9967
▁निर्णयमा	-9968
▁विराटनगरमा	-9969
ँै	-9970
▁घरदै	-9971
▁सिमित	-9972
▁गर्भपत	-9973
▁सङ्घर्ष	-9974
▁सुन्दरी	-9975
शान्ति	-9976
▁प्रकृतिको	-9977
ब्लु	-9978
▁रोगी	-9979
▁माई	-9980
▁अन्योल	-9981
विजेता	-9982
ेश्वरी	-9983
▁अधिकारीलाई	-9984
पारी	-9985
म्बो	-9986
▁शरि	-9987
▁भूकम्पपीडित	-9988
▁सर्वोच्चको	-9989
▁गुफा	-9990
▁अर्घाखाँची	-9991
▁प्रार्थ	-9992
ेन्डर	-9993
▁फोनमा	-9994
वियु	-9995
▁रेडक्र	-9996
▁प्रयासमा	-9997
▁नुन	-9998
वालले	-9999
▁मस्	-10000
ज्ञात	-10001
▁माग्न	-10002
▁माला	-10003
▁बिगत	-10004
▁धर्मा	-10005
▁मान्छेलाई	-10006
▁मिर्गौला	-10007
▁प्रबन्धक	-10008
▁तपाइ	-10009
▁२०७९	-10010
▁प्राण	-10011
▁मध्या	-10012
▁उदेश्य	-10013
▁भन्नुभएको	-10014
▁केबल	-10015
▁मन्त्रालयलाई	-10016
▁Mar	-10017
▁संसारको	-10018
लनमा	-10019
▁अभियानलाई	-10020
पीएल	-10021
ँटा	-10022
▁रायमाझ	-10023
▁छोरीलाई	-10024
▁नियत	-10025
▁हेलिकोप्टर	-10026
▁बिद्यालय	-10027
ष्ठा	-10028
▁कारबाहीको	-10029
र्सा	-10030
▁बिज्ञा	-10031
▁मन्त्रीले	-10032
▁टप	-10033
▁सम्भाव्यता	-10034
ङ्ग्रे	-10035
▁मिहिने	-10036
अन	-10037
▁Sept	-10038
▁मिलाउने	-10039
▁दुर्व	-10040
▁→	-10041
सनले	-10042
▁मिच	-10043
▁पार्किङ	-10044
सरकारले	-10045
▁नाग	-10046
▁अधिकृतको	-10047
▁यात्राको	-10048
▁En	-10049
।।	-10050
▁अस्व	-10051
▁कैदी	-10052
योजक	-10053
कान	-10054
▁अला	-10055
▁वेद	-10056
▁Himal	-10057
▁आँखामा	-10058
▁लाग्थ्यो	-10059
▁कार्यकर्तालाई	-10060
▁व्यवस्थापक	-10061
▁तिर्नुपर्ने	-10062
सायनिक	-10063
करणको	-10064
▁पार्व	-10065
ङ्कको	-10066
▁नसकिएको	-10067
▁बस्तीमा	-10068
▁स्रष्टा	-10069
▁लहान	-10070
▁सर्भि	-10071
ण्डी	-10072
ानदार	-10073
ट्टि	-10074
नेता	-10075
डाँडा	-10076
▁बाणिज्य	-10077
▁संगीतकार	-10078
४४	-10079
▁लेख्नुहोस्	-10080
ud	-10081
▁किनेर	-10082
▁मोहम्मद	-10083
▁प्रयोगशाला	-10084
▁क्ला	-10085
पिङ	-10086
▁सङ्ग्रह	-10087
▁निष्कासन	-10088
▁किट	-10089
डब	-10090
▁असहज	-10091
▁छेउमा	-10092
▁पर्वको	-10093
०७	-10094
▁खड्काको	-10095
उनले	-10096
▁कमरेड	-10097
▁मेक्सिको	-10098
▁अनामन	-10099
▁हालेर	-10100
▁साँचो	-10101
याएको	-10102
▁बर्खास्त	-10103
▁बेड	-10104
▁मर्यादा	-10105
▁त्यसअघि	-10106
▁सूचीकृत	-10107
▁पृथ्वीनारायण	-10108
▁गरिन	-10109
▁एजेन्ट	-10110
जेट	-10111
▁मगरले	-10112
▁बेरोजगार	-10113
▁अरे	-10114
▁र्य	-10115
▁नर्सि	-10116
▁पुलको	-10117
▁विधेयकमा	-10118
▁एकदिवसीय	-10119
च्य	-10120
भाई	-10121
▁पक्की	-10122
▁देखाउँदै	-10123
▁पिउने	-10124
उत्	-10125
▁खानेपानीको	-10126
▁विरुद्धमा	-10127
▁लड्न	-10128
▁काट्ने	-10129
त्तो	-10130
▁हनु	-10131
▁NE	-10132
▁हास्य	-10133
▁मागेको	-10134
▁शुरुवात	-10135
▁सदस्यका	-10136
▁भित्र्याउने	-10137
▁नरो	-10138
कुलपति	-10139
▁चाहिएको	-10140
▁बुक	-10141
▁Nov	-10142
▁फर्किए	-10143
▁सर्वसाधारणलाई	-10144
▁हाल्ने	-10145
▁करणी	-10146
▁प्रवास	-10147
▁यहा	-10148
▁बाक्लो	-10149
▁किसिमले	-10150
भुत	-10151
▁थियौँ	-10152
▁पाँचौ	-10153
▁दोहोर्या	-10154
▁ल्याउनु	-10155
▁टुङ्गो	-10156
▁नेकपाले	-10157
▁बादल	-10158
▁जनार्दन	-10159
▁रक्तचाप	-10160
▁मल्लले	-10161
▁रणनीतिक	-10162
▁पूर्णिमा	-10163
▁गर्दैछन्	-10164
रलाई	-10165
▁चार्ज	-10166
देखी	-10167
-1	-10168
सिलो	-10169
▁चुनि	-10170
▁घट्दै	-10171
▁गर्नुस	-10172
स्वरूप	-10173
▁छनोटमा	-10174
▁स्वभाविक	-10175
▁इञ्	-10176
▁झरेको	-10177
▁बिज्ञापनको	-10178
▁मालपोत	-10179
▁उतार	-10180
▁दिपा	-10181
▁सिक्न	-10182
▁तातोपानी	-10183
▁लागिरहेको	-10184
▁बोली	-10185
▁उजा	-10186
्याङ	-10187
▁उत्तीर्ण	-10188
▁रोब	-10189
▁सिमाना	-10190
कित	-10191
▁24	-10192
▁पाइलट	-10193
होरा	-10194
▁विगतको	-10195
▁January	-10196
▁तेह्रथु	-10197
▁खर्चि	-10198
▁पोशा	-10199
▁तैपनि	-10200
▁कतारमा	-10201
०८	-10202
▁कार्यकर्ताले	-10203
▁अत्याधिक	-10204
▁निष्काशन	-10205
▁काठमाडौँको	-10206
पोर्	-10207
▁सव	-10208
▁विश्वविद्यालयका	-10209
लिउड	-10210
नगरमा	-10211
▁स्वरूप	-10212
खर्क	-10213
▁वर्ल्ड	-10214
उडमा	-10215
▁भरो	-10216
▁शीतल	-10217
▁उठ्ने	-10218
▁दिलाउन	-10219
▁श्रेष्ठलाई	-10220
▁खाँ	-10221
▁उमेश	-10222
▁अपनाउन	-10223
▁बाँस्को	-10224
ऊँ	-10225
▁लाग्दै	-10226
▁उम्मेद्वार	-10227
▁सुधारको	-10228
▁वरपर	-10229
▁देशै	-10230
▁जन्मिएका	-10231
▁खाएको	-10232
▁पुजा	-10233
दोष	-10234
▁सास्ती	-10235
▁गुमाएको	-10236
▁ब्यू	-10237
▁बाला	-10238
▁बर्षा	-10239
▁उद्योगले	-10240
▁गुमाएर	-10241
▁मोरङको	-10242
गंज	-10243
▁सुन्	-10244
४७	-10245
▁सुनुवार	-10246
▁बच्चालाई	-10247
▁हेर्नुस्	-10248
▁भनिए	-10249
▁एकैपटक	-10250
र्मी	-10251
▁ब्राण्ड	-10252
▁बुझेर	-10253
▁तोक्ने	-10254
▁राखिनेछ	-10255
▁मुस्ताङ	-10256
▁राख्नुपर्ने	-10257
▁मुक्तिनाथ	-10258
याधि	-10259
▁अवस्थालाई	-10260
म्पा	-10261
▁भनिएका	-10262
▁मारिएका	-10263
▁रङ	-10264
▁नगरप्रमुख	-10265
ठान	-10266
▁व्यावहारिक	-10267
▁घरधु	-10268
▁डान्स	-10269
▁जबरजस्ती	-10270
हट	-10271
▁खाजा	-10272
▁काटेर	-10273
▁गोर्ख	-10274
रक	-10275
▁देखेपछि	-10276
▁प्राचीन	-10277
▁सतर्कता	-10278
▁शत	-10279
▁बनाइने	-10280
▁स्त्री	-10281
मुलक	-10282
▁मुगु	-10283
▁सङ्गठन	-10284
▁Rep	-10285
▁नजाने	-10286
▁समाजलाई	-10287
्ट	-10288
▁गर्नाले	-10289
दिन्छ	-10290
▁Nagarik	-10291
हेरी	-10292
▁न्यानो	-10293
▁प्रस्तावमा	-10294
▁बलात्कारपछि	-10295
▁माता	-10296
▁खटिएको	-10297
▁सर्वसाधारणको	-10298
▁आचार्यको	-10299
चेस्टर	-10300
▁परिरहेको	-10301
एसिया	-10302
▁प्रयो	-10303
▁वार्ड	-10304
गीत	-10305
टिज	-10306
▁सुधा	-10307
▁September	-10308
विश्व	-10309
▁तालि	-10310
कामा	-10311
जग्गा	-10312
निको	-10313
▁यदी	-10314
▁व्यापारमा	-10315
▁संस्करणको	-10316
▁लाइभ	-10317
▁एकताका	-10318
▁भेग	-10319
▁अक्षर	-10320
opati	-10321
▁ईश्व	-10322
▁चुहा	-10323
▁आवमा	-10324
▁भेटेर	-10325
▁उद्दार	-10326
▁भइसक्यो	-10327
▁यतिखेर	-10328
▁राख्छ	-10329
▁निद्रा	-10330
ईन्	-10331
गिरि	-10332
▁हुनुका	-10333
▁बुद्धको	-10334
▁सिटौला	-10335
समी	-10336
▁घटनाका	-10337
▁सेलि	-10338
▁समानता	-10339
▁रूपान्तरण	-10340
सिन	-10341
टप	-10342
▁पदम	-10343
▁प्रतिष्	-10344
▁समेट्ने	-10345
३९	-10346
▁खानपान	-10347
▁करोडौं	-10348
▁तराईका	-10349
टाइनमा	-10350
▁अज्ञात	-10351
▁स्वास्थ्यको	-10352
▁धरहरा	-10353
ast	-10354
न्ध्या	-10355
▁पाँचौं	-10356
▁सिकार	-10357
५५	-10358
पाका	-10359
ेडिट	-10360
▁No	-10361
टिंग	-10362
▁निकालेर	-10363
▁एसिड	-10364
▁सामग्रीको	-10365
▁भेदभाव	-10366
▁बुटवलमा	-10367
▁असम्भव	-10368
अनुसारको	-10369
▁धेरैलाई	-10370
org	-10371
▁बटु	-10372
▁गर्द	-10373
▁महन्थ	-10374
▁एसोसिएसन	-10375
▁जबकि	-10376
नुका	-10377
र्छ	-10378
▁जिते	-10379
▁ल्हो	-10380
ंगिक	-10381
स्टे	-10382
रक्षा	-10383
▁बताउने	-10384
▁अन्तरराष्ट्रिय	-10385
▁स्थाना	-10386
▁साथीहरु	-10387
▁हत्यामा	-10388
▁मसान्तसम्म	-10389
र्था	-10390
▁www	-10391
ञ्चोक	-10392
▁भनेकै	-10393
▁सामुहिक	-10394
उनी	-10395
▁उन्मुख	-10396
▁विवाहको	-10397
▁जबर्ज	-10398
▁भरपर्दो	-10399
▁निष्कर्षमा	-10400
▁पुर्न	-10401
▁सुरक्षामा	-10402
ham	-10403
वाटको	-10404
▁....	-10405
▁जाय	-10406
▁रेमिट्यान्स	-10407
कुन	-10408
▁महादेव	-10409
▁बोर्डका	-10410
▁खोलेर	-10411
yr	-10412
▁शार	-10413
▁जनजीवन	-10414
▁कोण	-10415
▁सार्ने	-10416
▁लिन्छ	-10417
▁कांग्रेसलाई	-10418
ंच	-10419
▁दुबई	-10420
▁न्युन	-10421
▁शाखाका	-10422
▁व्यक्तिहरु	-10423
▁रहेकोले	-10424
एज	-10425
ाल्न	-10426
ुग	-10427
▁गाउँले	-10428
▁प्रतिशतमा	-10429
▁झल्	-10430
▁गर्दैनन्	-10431
समाचार	-10432
▁महानगरपालिकाको	-10433
▁ल्यायो	-10434
▁चारवटा	-10435
▁जान्छन्	-10436
▁विश्वविद्यालयको	-10437
▁कमै	-10438
▁त्यसमाथि	-10439
▁कामले	-10440
▁इमान्दार	-10441
▁स्थानबाट	-10442
▁लगानीकर्ताले	-10443
▁ज्ञापनपत्र	-10444
▁केरा	-10445
▁घोडा	-10446
▁काण्ड	-10447
एप	-10448
▁ढुंग	-10449
▁अनामनगर	-10450
▁चर्	-10451
डाम	-10452
तपाईं	-10453
▁घटाउने	-10454
▁इमान	-10455
▁उदाहरणका	-10456
▁भुवन	-10457
सां	-10458
▁रोड	-10459
▁अर्थतन्त्रको	-10460
▁उपसभामुख	-10461
▁विपक्षमा	-10462
▁नमि	-10463
▁स्को	-10464
▁गएराति	-10465
▁खेलकू	-10466
▁इजलासले	-10467
ब्रि	-10468
▁राउतले	-10469
लिने	-10470
▁युवाले	-10471
▁निमार्ण	-10472
▁बनाउनुपर्छ	-10473
▁अनलाइ	-10474
▁जुलु	-10475
▁भर्ने	-10476
▁एसएलसी	-10477
▁परिवर्तनका	-10478
▁श्रीमतीको	-10479
▁जडी	-10480
ेनी	-10481
▁प्रक्षे	-10482
लाइट	-10483
▁केरु	-10484
▁अभियानका	-10485
िकाको	-10486
▁थिच	-10487
▁हेरचाह	-10488
झैं	-10489
▁कान	-10490
ल्टी	-10491
▁तोडफोड	-10492
▁क्यानडा	-10493
▁सन्दिप	-10494
▁सातौं	-10495
हू	-10496
षित	-10497
श्याम	-10498
▁दूतावासले	-10499
▁न्यूयोर्क	-10500
टाई	-10501
▁छिन	-10502
▁हुँदैनन्	-10503
▁ध्वस्त	-10504
▁पाकिस्तानी	-10505
▁जमी	-10506
▁कीर्तिमान	-10507
आफ्ना	-10508
म्र	-10509
▁साह्रै	-10510
▁कठोर	-10511
▁दुर्व्य	-10512
▁कोषले	-10513
▁संरक्षणमा	-10514
▁बागलु	-10515
▁त्रुटि	-10516
डारी	-10517
▁रावलले	-10518
बले	-10519
▁राष्ट्रका	-10520
▁देखाएका	-10521
▁ag	-10522
०१	-10523
आफ्नै	-10524
▁जलस्रोत	-10525
▁महामारीका	-10526
▁नारायणकाजी	-10527
▁तरुण	-10528
▁इजा	-10529
▁परमेश्वरले	-10530
▁घाउ	-10531
▁गान्ध	-10532
▁गैरकानुनी	-10533
▁अन्तर्गतको	-10534
रास्व	-10535
▁भएकाे	-10536
▁भोजन	-10537
▁मनाइने	-10538
▁रचनात्मक	-10539
स्टो	-10540
▁अराज	-10541
▁संबिधान	-10542
जंग	-10543
▁वातावरणमा	-10544
▁नख	-10545
▁औजार	-10546
▁विमल	-10547
▁खोज्नु	-10548
▁संकल्प	-10549
▁स्वरोज	-10550
▁महासमिति	-10551
▁रिसोर्ट	-10552
▁राधा	-10553
▁बजेको	-10554
▁मेलमिलाप	-10555
▁मझ	-10556
▁बिबि	-10557
▁पेनाल्	-10558
▁चौधरीको	-10559
र्सको	-10560
याले	-10561
साथै	-10562
▁आवतजा	-10563
लू	-10564
हार्य	-10565
ख्यात	-10566
▁सिन्ड	-10567
▁दुर्भाग्य	-10568
▁नबना	-10569
▁खुल्न	-10570
▁बाहिरबाट	-10571
▁कारोबारमा	-10572
▁मारमा	-10573
▁बजेतिर	-10574
्यौ	-10575
▁सावित	-10576
▁पद्	-10577
▁निर्णयहरु	-10578
▁पत्या	-10579
▁कैलालीको	-10580
वेला	-10581
▁रिजाल	-10582
▁चीनबाट	-10583
▁मान्	-10584
कप	-10585
▁वल्	-10586
▁माफी	-10587
▁डाँडा	-10588
▁स्मारक	-10589
▁बङ्गलादेश	-10590
▁सकिएन	-10591
▁ब्राजिल	-10592
▁महराले	-10593
▁वञ्चित	-10594
▁&	-10595
क्षमा	-10596
▁नदेख	-10597
▁राजिनामा	-10598
्वल	-10599
▁दललाई	-10600
▁गाडीको	-10601
▁पासपोर्ट	-10602
▁टाँ	-10603
▁रूख	-10604
▁प्लान्ट	-10605
▁महाशाखाका	-10606
▁दशकदेखि	-10607
▁अर्काको	-10608
▁उपमेयर	-10609
▁वातावरणीय	-10610
क्समा	-10611
▁गरेसँगै	-10612
▁धुलिखेल	-10613
▁२०२१	-10614
▁भुसाल	-10615
▁आइपुग्दा	-10616
▁राख्नुहोस्	-10617
▁सिभिल	-10618
▁भेटियो	-10619
▁उपस्थितिमा	-10620
मानले	-10621
▁घटनाले	-10622
मालले	-10623
▁श्रोत	-10624
▁आइसकेको	-10625
▁नहर	-10626
▁आफैँले	-10627
▁An	-10628
▁समस्याका	-10629
जुद	-10630
▁छर	-10631
ity	-10632
विदेश	-10633
▁आइपुगेको	-10634
▁वर्णन	-10635
▁दिइरहेका	-10636
धिन	-10637
थिन्	-10638
▁गिरिजा	-10639
▁बराबरीमा	-10640
▁हिम्मत	-10641
▁भन्छन	-10642
लगायतले	-10643
कारले	-10644
सहर	-10645
▁जङ्ग	-10646
▁क्लबका	-10647
▁उत्ते	-10648
▁डरलाग्दो	-10649
चनको	-10650
▁फाई	-10651
▁अध्ययनमा	-10652
▁प्रम	-10653
▁सप्तरीको	-10654
▁नानी	-10655
▁महालेखा	-10656
▁अहिलेका	-10657
▁एकमात्र	-10658
▁जाजरकोट	-10659
▁Jul	-10660
▁आठौं	-10661
▁प्रतिकूल	-10662
▁ठूलै	-10663
भरा	-10664
▁Dainik	-10665
▁ठाउँको	-10666
▁पाएर	-10667
▁Media	-10668
▁निर्देशित	-10669
▁गर्नुपर्दछ	-10670
ोस	-10671
४९	-10672
▁अजय	-10673
▁ईन्	-10674
ri	-10675
▁कहीँ	-10676
बीको	-10677
▁नचाह	-10678
र्निया	-10679
▁संस्थाहरु	-10680
▁..	-10681
गारी	-10682
▁यसबाहेक	-10683
▁स्कुटर	-10684
जिअ	-10685
ष्मा	-10686
▁हेल्थ	-10687
ड्यन्त्र	-10688
▁सुखद	-10689
▁आउँदैन	-10690
▁ग्यार	-10691
▁कार्यकालमा	-10692
▁देउसी	-10693
▁विभागीय	-10694
▁मौसममा	-10695
ex	-10696
▁ठकु	-10697
▁बार्सिलोना	-10698
▁निम्तो	-10699
 ?	-10700
▁परियोजनाको	-10701
▁चिह्न	-10702
▁नवनि	-10703
▁एपि	-10704
▁चापा	-10705
▁महतले	-10706
▁संस्कृत	-10707
▁ताप्लेजु	-10708
▁न्युयोर्क	-10709
▁महशु	-10710
▁न्यायको	-10711
▁सामग्रीहरू	-10712
▁थाल्छ	-10713
▁गरिदिएको	-10714
▁कामदारलाई	-10715
▁चीनसँग	-10716
मिल	-10717
▁आवि	-10718
▁कटु	-10719
चीमा	-10720
नेपालको	-10721
टनमा	-10722
न्तरले	-10723
▁घटनालाई	-10724
तिमी	-10725
▁बलिङ	-10726
▁रोशन	-10727
▁वर्षकी	-10728
▁रेस्टुरेन्ट	-10729
▁कार्यक्रमले	-10730
गिरी	-10731
▁कोहल	-10732
▁दिइरहेको	-10733
▁पराजुलीले	-10734
▁फलो	-10735
▁ट्रयाक	-10736
AL	-10737
गाईं	-10738
कोटको	-10739
▁विविधता	-10740
▁बताउँछिन्	-10741
पछ	-10742
▁नेवार	-10743
▁लाइनमा	-10744
▁उद्देश्यका	-10745
▁उसै	-10746
▁उकालो	-10747
▁फर्कन	-10748
व्र्य	-10749
▁स्तम्भ	-10750
▁स्तरोन्नति	-10751
सेज	-10752
▁स्थापनाको	-10753
▁रघु	-10754
स्थानमा	-10755
वधिक	-10756
म्भु	-10757
▁टोकियो	-10758
फेस	-10759
▁पाँचथर	-10760
▁युवाहरु	-10761
▁ओसार	-10762
ेजस्तो	-10763
▁उल्लेखित	-10764
▁प्रक्षेपण	-10765
वको	-10766
▁रंगशालामा	-10767
▁इरा	-10768
▁आउनेछ	-10769
िमि	-10770
▁भेटिए	-10771
▁अनन्त	-10772
▁आब	-10773
▁एकसाथ	-10774
ईओ	-10775
न्टी	-10776
▁दाँत	-10777
▁थे	-10778
▁बर्दि	-10779
▁ज्योतिष	-10780
▁अनुमतिपत्र	-10781
▁अपरिहार्य	-10782
झो	-10783
……	-10784
खेती	-10785
▁अर्कोतिर	-10786
day	-10787
▁More	-10788
▁चिन्तन	-10789
▁सिड्	-10790
अगाडि	-10791
▁बचाउ	-10792
▁पर्यटनको	-10793
▁दिनहुँ	-10794
▁क्यासिनो	-10795
▁स्कुलमा	-10796
▁विद्यालयलाई	-10797
▁दरमा	-10798
▁भोग्नु	-10799
▁ग्राहकलाई	-10800
क्षामन्त्री	-10801
▁जहिले	-10802
▁गार्ड	-10803
३१	-10804
▁कदर	-10805
▁देवता	-10806
▁प्रतिद्वन्द	-10807
▁दिमाग	-10808
▁पर्दै	-10809
▁भया	-10810
▁आँक	-10811
▁मणि	-10812
▁अठ	-10813
▁उचाइमा	-10814
हारा	-10815
▁शंकास्पद	-10816
एनए	-10817
▁सिलवाल	-10818
सम्यान	-10819
▁निलम्बन	-10820
▁चिकित्सकको	-10821
▁टेलिभि	-10822
▁दोहोरी	-10823
ञ्जी	-10824
▁पढ्दा	-10825
▁स्थानान्तरण	-10826
▁दिल्लीमा	-10827
▁नल	-10828
▁श्व	-10829
▁एनसेल	-10830
▁साम्राज्य	-10831
▁देखिएन	-10832
३६	-10833
बेच	-10834
▁साटो	-10835
▁एपीएफ	-10836
▁बृहत्	-10837
▁स्नातको	-10838
▁पुस्तकमा	-10839
▁बेग्लै	-10840
▁डेभलपमेन्ट	-10841
▁इन्भे	-10842
▁सम्झौताको	-10843
दाताको	-10844
▁फिलिपि	-10845
पोषण	-10846
याली	-10847
▁एएफ	-10848
▁ज्यादै	-10849
२०७३	-10850
▁षड्यन्त्र	-10851
▁वाचन	-10852
▁खड्ग	-10853
▁उपसचिव	-10854
टाइन	-10855
▁प्राप्ति	-10856
ण्य	-10857
▁संसारकै	-10858
▁युथ	-10859
▁बसमा	-10860
▁लगानीका	-10861
▁पत्रकारको	-10862
▁छरि	-10863
▁लगन	-10864
▁क्रेडिट	-10865
▁भारु	-10866
▁कहाँबाट	-10867
▁वेबसाइटको	-10868
▁दैनिकी	-10869
▁हिँड्ने	-10870
▁माल्दिभ	-10871
▁गुम	-10872
▁संघिय	-10873
▁आँखाको	-10874
▁सुनचाँ	-10875
▁प्रमाणीकरण	-10876
▁y	-10877
▁यकिन	-10878
▁गरिमा	-10879
प्रविधि	-10880
▁मेगावाटको	-10881
▁सरह	-10882
▁उमेद	-10883
▁नगरिएको	-10884
▁छाउ	-10885
▁बिर्तामोड	-10886
अघ	-10887
all	-10888
कथा	-10889
▁निशा	-10890
▁मता	-10891
▁उत्तरा	-10892
▁ठाउ	-10893
▁हाई	-10894
▁नगरा	-10895
▁हिसा	-10896
▁पब्लिकेसन्स	-10897
▁हर्क	-10898
▁निवर्तमान	-10899
▁प्रधानमन्त्रीका	-10900
थुन	-10901
▁अदुवा	-10902
▁बिस्	-10903
▁साउथ	-10904
▁खेलबाट	-10905
▁झैं	-10906
▁फर्केका	-10907
▁प्रशारण	-10908
▁गुरुयोजना	-10909
▁आएन	-10910
▁पशुपतिनाथ	-10911
▁अनुपात	-10912
▁प्रजिअ	-10913
▁उत्रिएका	-10914
▁री	-10915
▁झाले	-10916
▁अनमोल	-10917
▁लिएपछि	-10918
▁थालि	-10919
▁निमन्त्र	-10920
नुभएन	-10921
▁नौलो	-10922
▁वर्षौं	-10923
▁निर्णयको	-10924
▁छिर	-10925
▁बताउदै	-10926
▁उपकुलपति	-10927
▁निक्कै	-10928
▁पुग्नु	-10929
▁शीर्षक	-10930
▁भिम	-10931
▁जानकी	-10932
▁प्रतिष्ठानका	-10933
▁पार्छ	-10934
▁लन्डन	-10935
▁पुँजीगत	-10936
समु	-10937
▁बिद्यार्थी	-10938
▁नभइ	-10939
▁नियमा	-10940
▁उपत्यकाको	-10941
▁चन्द्रा	-10942
▁रहेकोमा	-10943
▁पाउनुपर्ने	-10944
▁प्रवर्द्धन	-10945
▁उपविजेता	-10946
▁प्रतिष्ठित	-10947
▁उठ्न	-10948
८०	-10949
▁about	-10950
▁फेब्रुअरी	-10951
▁नजिकको	-10952
▁महतोले	-10953
▁बितरण	-10954
▁खाले	-10955
▁पाएनन्	-10956
▁बेल्जियम	-10957
खाने	-10958
▁लुका	-10959
▁तिहारको	-10960
र्सद	-10961
▁अपराह्न	-10962
▁कोरोनाभाइ	-10963
▁द्विपक्षीय	-10964
सोम	-10965
लाउने	-10966
▁भूकम्पको	-10967
▁सांग	-10968
तली	-10969
▁पचास	-10970
▁गरेकै	-10971
पश्चात्	-10972
रथ	-10973
पनमा	-10974
▁आव्	-10975
▁घले	-10976
▁नेशनल	-10977
▁धक्का	-10978
४२	-10979
▁वास्तविकता	-10980
जानु	-10981
शीलता	-10982
लेश्वर	-10983
▁निस्कने	-10984
▁श्वास	-10985
▁चढेर	-10986
▁थपिएका	-10987
परेका	-10988
▁ह्वाट्स	-10989
▁किनारा	-10990
▁आँधी	-10991
▁झोला	-10992
▁वडाका	-10993
स्थानीय	-10994
▁बेलायतको	-10995
पाठन	-10996
न्दर्भिक	-10997
▁Canc	-10998
साहित्य	-10999
▁पत्रिकाको	-11000
▁संखुवासभा	-11001
३३	-11002
आएको	-11003
ल्याक	-11004
ुरा	-11005
▁गहि	-11006
▁गैँ	-11007
▁दुईको	-11008
क्ष्यमा	-11009
▁औषधिको	-11010
▁योगेश	-11011
▁विधामा	-11012
▁पेरिस	-11013
▁स्वयम्	-11014
गाड	-11015
▁प्लास्टिक	-11016
न्वित	-11017
वाहिक	-11018
▁रुपा	-11019
लाबारी	-11020
ुङ	-11021
▁क्याम्पसमा	-11022
▁Apr	-11023
▁एल्बम	-11024
▁ब्यान	-11025
बिक	-11026
▁पदमार्ग	-11027
▁गीतकार	-11028
कुनै	-11029
▁आँसु	-11030
io	-11031
▁प्रश्नमा	-11032
▁गुगल	-11033
तस्	-11034
▁पक्षबाट	-11035
साको	-11036
▁गजुर	-11037
▁सम्झनामा	-11038
▁चिकित्सकले	-11039
▁प्याले	-11040
▁सक्यो	-11041
▁सम्मिलित	-11042
प्राप्त	-11043
वाले	-11044
▁गहना	-11045
▁रहनुभएका	-11046
एमएस	-11047
▁वेव	-11048
▁भगवान्	-11049
▁जलेर	-11050
▁पाइला	-11051
▁प्रेमको	-11052
▁प्रजन	-11053
▁कठिनाइ	-11054
▁प्रक्रियालाई	-11055
▁पुरुषले	-11056
▁नपाएर	-11057
▁हाे	-11058
▁सभासद	-11059
▁ट्रम्पको	-11060
▁ट्रफी	-11061
▁सर्वोच्चले	-11062
▁मतलब	-11063
▁सिरिज	-11064
▁इजाजत	-11065
▁२००८	-11066
▁Cancel	-11067
▁चुरोट	-11068
▁सुख्	-11069
▁योर्क	-11070
▁शाखाको	-11071
▁अध्यक्षता	-11072
कोभिड	-11073
▁संवत्	-11074
▁नआउने	-11075
▁हौसला	-11076
र्जित	-11077
▁कार्यक्षेत्र	-11078
▁सबल	-11079
सत्ता	-11080
▁बेचबि	-11081
▁अग्रिम	-11082
▁कार्यतालिका	-11083
हाली	-11084
▁घट्ने	-11085
▁सजग	-11086
▁पुर्	-11087
▁गरिदिन	-11088
▁कद	-11089
▁अनुहारमा	-11090
▁टाइम्स	-11091
▁पार्टन	-11092
▁उन्नत	-11093
▁समस्याले	-11094
▁कार्यदलले	-11095
▁बोले	-11096
▁बनेपा	-11097
▁मजबुत	-11098
▁यातना	-11099
▁टेक्नो	-11100
गोर	-11101
▁सामग्रीका	-11102
कारक	-11103
▁अं	-11104
▁गोष्ठी	-11105
▁मिलि	-11106
▁क्यालि	-11107
पै	-11108
▁लडाकु	-11109
▁बाद	-11110
▁युवतीको	-11111
▁नाक	-11112
▁अनेरास्व	-11113
▁पनी	-11114
क्सको	-11115
▁वकिल	-11116
निकीकरण	-11117
▁साथीभाइ	-11118
▁प्यानल	-11119
▁सक्नुपर्छ	-11120
जाँच	-11121
▁ओझ	-11122
शय	-11123
ानले	-11124
▁पानीले	-11125
▁उल्लेखनीय	-11126
▁सांसदहरुले	-11127
▁सहन	-11128
ड्को	-11129
▁लेख्	-11130
ठे	-11131
▁याम	-11132
▁क्वारेन्टाइनमा	-11133
पिओ	-11134
किएर	-11135
▁आयोगलाई	-11136
▁प्रतिवादी	-11137
▁टोक	-11138
▁सदन	-11139
▁हुन्छु	-11140
▁नोक्सानी	-11141
▁कार्यसम्पादन	-11142
सीका	-11143
▁टुट	-11144
▁समूहलाई	-11145
▁सम्मका	-11146
दशी	-11147
▁हैर	-11148
इमा	-11149
▁देशकै	-11150
लगायतको	-11151
▁यन्त्र	-11152
▁साक्षी	-11153
▁संसारभर	-11154
यत्त	-11155
ंदैन	-11156
▁दुव्र्य	-11157
▁स्नातकोत्तर	-11158
▁प्रदेशसभामा	-11159
▁स्की	-11160
▁ago	-11161
▁हेरफेर	-11162
▁मानिसहरूले	-11163
निर	-11164
सेस	-11165
▁रोय	-11166
▁यूए	-11167
▁प्रतिष्ठानले	-11168
▁शेर्पाले	-11169
▁उठेर	-11170
▁जानकारीको	-11171
▁युएस	-11172
▁नेदरल्याण्ड	-11173
▁पर्नु	-11174
▁फर्के	-11175
▁दुर्लभ	-11176
▁वर्षयता	-11177
▁समर्थनमा	-11178
▁शे	-11179
▁संसारका	-11180
पत्	-11181
▁दलहरूले	-11182
▁∣	-11183
▁स्वरोजगार	-11184
▁त्यसमध्ये	-11185
▁आव्हान	-11186
▁बोकेका	-11187
▁वर्गका	-11188
▁दमन	-11189
▁कुलमान	-11190
माई	-11191
▁धौला	-11192
▁एक्लो	-11193
▁दुवैले	-11194
▁आक्रामक	-11195
▁बोलाएको	-11196
▁दार्चुला	-11197
च्ची	-11198
▁टिममा	-11199
▁हुनुभयो	-11200
▁असुरक्षित	-11201
▁संक्रमणबाट	-11202
▁स्पष्टीकरण	-11203
▁उदार	-11204
▁राजदु	-11205
▁दिदीबहिनी	-11206
▁जर्मन	-11207
▁रथ	-11208
२०६	-11209
▁दुवैको	-11210
▁तद	-11211
irst	-11212
ूर	-11213
▁निश्	-11214
धेरै	-11215
▁उत्खन	-11216
▁हुन्छन	-11217
▁प्रार्थना	-11218
oo	-11219
डले	-11220
▁गहुँ	-11221
▁कार्यालयलाई	-11222
टेन	-11223
पाटन	-11224
▁जनरल	-11225
▁अरुले	-11226
०४	-11227
▁अष्ट्रेलियामा	-11228
▁खोजे	-11229
▁संहिता	-11230
▁मामि	-11231
▁सुझाब	-11232
▁December	-11233
▁श्रृंखला	-11234
▁बृहत	-11235
▁अर्पण	-11236
▁मण्डल	-11237
र्मो	-11238
▁धर्मको	-11239
▁जानुपर्छ	-11240
▁क्यु	-11241
▁बैंकबाट	-11242
▁दिन्छु	-11243
▁Cop	-11244
▁महाप्र	-11245
यहाँ	-11246
une	-11247
▁हिट	-11248
▁आचरण	-11249
▁नाता	-11250
▁आधु	-11251
▁संगठनका	-11252
▁रुपैं	-11253
▁खसी	-11254
▁स्वीका	-11255
22	-11256
▁गरौ	-11257
▁भीमदत्त	-11258
हेल	-11259
▁खाका	-11260
गुण	-11261
▁आरा	-11262
▁बाब	-11263
▁आदिको	-11264
▁इन्जिन	-11265
▁भक्तपुरको	-11266
ैर्य	-11267
▁पन्तले	-11268
▁वैचारिक	-11269
▁सहकारीको	-11270
▁होली	-11271
▁कोसिस	-11272
▁अदालतबाट	-11273
▁उति	-11274
▁सोचे	-11275
▁अनुप्रयोग	-11276
▁मच्च	-11277
▁बन्दर	-11278
▁कालीगण्डकी	-11279
▁नक	-11280
▁डिजेल	-11281
▁पूर्णरुपमा	-11282
▁सृष्टि	-11283
▁पोखरेलको	-11284
▁मर्ने	-11285
▁स्टेट	-11286
फोर्निया	-11287
▁पहिरोमा	-11288
▁संसो	-11289
lick	-11290
▁post	-11291
▁जिम्बा	-11292
▁बढाउनु	-11293
▁__	-11294
▁युवकको	-11295
साङ	-11296
▁अधिकारका	-11297
▁मार्फत्	-11298
▁लघुवित्	-11299
▁हुँदो	-11300
▁ह्वात्तै	-11301
▁यसपालि	-11302
ङ्कर	-11303
फिचर	-11304
▁पाइयो	-11305
▁मंसि	-11306
सम्पन्न	-11307
▁रासायनिक	-11308
▁सुग	-11309
▁दीपा	-11310
▁भागब	-11311
▁घुम	-11312
▁एशियाली	-11313
▁एमालेलाई	-11314
▁कञ्चनपुरको	-11315
▁स्कट	-11316
▁धन्दा	-11317
▁धर्ना	-11318
ल्दा	-11319
▁पीसीआर	-11320
संख्यक	-11321
▁किनबेच	-11322
३२	-11323
▁घडी	-11324
▁अरूलाई	-11325
▁म्याग्दीको	-11326
किश	-11327
▁इन्डोनेसिया	-11328
▁भानुभक्त	-11329
लकण्ठ	-11330
iz	-11331
बरा	-11332
▁देखाउ	-11333
पुस्त	-11334
बाई	-11335
▁Feb	-11336
▁वारे	-11337
▁गोल्डकप	-11338
▁भुसालले	-11339
▁तुलनात्मक	-11340
▁दायाँ	-11341
▁गर्यौं	-11342
मतो	-11343
▁उप्रेत	-11344
▁हाफमा	-11345
▁गर्भपतन	-11346
▁भात	-11347
▁२०२२	-11348
▁वृद्धिदर	-11349
▁घृ	-11350
▁शिक्षाका	-11351
सकिएको	-11352
र्तिमा	-11353
▁छलफलका	-11354
▁सञ्जय	-11355
▁दस्त	-11356
सिनाले	-11357
▁नर्सिङ	-11358
▁ओग	-11359
▁असाध्य	-11360
खाले	-11361
▁खर्चमा	-11362
▁लमजु	-11363
ङ्गको	-11364
▁गाँउपालिका	-11365
▁दवाव	-11366
▁बलिउडमा	-11367
▁घनश्याम	-11368
▁सक्रियता	-11369
▁जनआन्दोलन	-11370
▁थन्	-11371
has	-11372
▁रत्ननगर	-11373
▁शरीरलाई	-11374
ph	-11375
yright	-11376
▁व्यायाम	-11377
▁झै	-11378
▁लागेन	-11379
▁असहमति	-11380
▁आउनुभएको	-11381
▁तालीम	-11382
▁सम्पति	-11383
▁खुम्	-11384
▁व्यवस्थामा	-11385
सरको	-11386
▁विल	-11387
▁यद्यपी	-11388
▁पिक	-11389
▁क्ल	-11390
▁परीक्षणको	-11391
जाले	-11392
पादक	-11393
▁लामाको	-11394
▁पत्रिकामा	-11395
▁मूल्यवृद्धि	-11396
▁घाँटी	-11397
▁25	-11398
▁समेटि	-11399
▁सास	-11400
▁नजिकैको	-11401
eng	-11402
पहिले	-11403
▁तिरेर	-11404
▁सभाले	-11405
▁सूत्र	-11406
▁धान्न	-11407
▁भेगमा	-11408
▁निकासा	-11409
छौ	-11410
इन्ट	-11411
▁मिन	-11412
▁ल्याई	-11413
स्म	-11414
▁चेल्	-11415
▁झन्झ	-11416
▁पिसाब	-11417
कारिता	-11418
▁केरुङ	-11419
▁उम्मेदवारले	-11420
लोभ	-11421
कान्ति	-11422
त्रिम	-11423
▁छोड्	-11424
▁प्रिती	-11425
▁परेन	-11426
लिखित	-11427
▁भावुक	-11428
▁गर्नुपरेको	-11429
,,	-11430
चीको	-11431
▁रजत	-11432
▁रेशम	-11433
▁पालामा	-11434
▁पहिलेको	-11435
▁नसु	-11436
▁होमि	-11437
▁गरिदिने	-11438
▁अव्य	-11439
▁युरोपियन	-11440
रीलाई	-11441
▁साहित्यमा	-11442
▁ढङ्गले	-11443
▁इन्जिनियरिङ	-11444
▁मिना	-11445
▁वनस्पति	-11446
▁नाकाबन्द	-11447
▁रोगबाट	-11448
▁प्रतियोगी	-11449
▁तिब्र	-11450
▁तुल्या	-11451
▁सम्बन्धको	-11452
▁राहु	-11453
डिओ	-11454
▁फिल्मले	-11455
▁फास्ट	-11456
▁स्वायत्त	-11457
▁उम्	-11458
संविधान	-11459
▁बुझेको	-11460
▁लैजानु	-11461
▁प्रस्तुती	-11462
▁बन्नेछ	-11463
▁सेवालाई	-11464
▁संरक्षणका	-11465
▁विद्	-11466
न्टल	-11467
▁ब्याट्	-11468
▁Copyright	-11469
पत्ति	-11470
▁कोहि	-11471
▁जवाफमा	-11472
▁एयरपोर्ट	-11473
ेडी	-11474
ath	-11475
▁भित्रको	-11476
▁साहित्यको	-11477
▁उपभोग्य	-11478
▁अध्यक्षले	-11479
▁बित्	-11480
▁ब्याक	-11481
▁अन्तमा	-11482
▁यहो	-11483
▁धुर्मुस	-11484
▁सावधानी	-11485
ans	-11486
पला	-11487
केही	-11488
▁लागूऔषध	-11489
५६	-11490
▁अस्पताललाई	-11491
▁हुनेगरी	-11492
▁सूचक	-11493
▁आसन्न	-11494
▁जमिनमा	-11495
▁शब्दमा	-11496
▁जयन्ती	-11497
गीमा	-11498
पिएल	-11499
▁कोरोनाका	-11500
मधुर	-11501
▁आँट	-11502
▁गहन	-11503
▁बृद्ध	-11504
▁आतिथ्य	-11505
वस्थित	-11506
▁मुटुको	-11507
▁चुक	-11508
▁नामबाट	-11509
▁प्रोजेक्ट	-11510
▁प्रतिष्ठानको	-11511
▁21	-11512
▁छुवा	-11513
माइ	-11514
▁किरात	-11515
▁अन्र्तगत	-11516
०९	-11517
▁August	-11518
▁तिब्बत	-11519
▁निर्विरोध	-11520
imes	-11521
▁गैं	-11522
द्र्धन	-11523
▁महिलाका	-11524
्वाइ	-11525
▁सिफारिसमा	-11526
▁रेट	-11527
▁द्रुत	-11528
▁समन्वयमा	-11529
▁कारक	-11530
▁मार्न	-11531
वामा	-11532
▁लम्साल	-11533
▁क्रोएसिया	-11534
डम	-11535
▁विवेकशील	-11536
▁विकट	-11537
▁बुझेका	-11538
▁पठनपाठन	-11539
▁विकेटको	-11540
▁इटहर	-11541
▁कार्यलय	-11542
नुपर्नेमा	-11543
▁जानी	-11544
▁खुल्नेछ	-11545
▁लापरबाही	-11546
▁नखु	-11547
▁नसो	-11548
हस	-11549
verest	-11550
▁सस्था	-11551
खान	-11552
बली	-11553
▁बिर	-11554
▁वैठक	-11555
▁नेताहरुलाई	-11556
तिले	-11557
मुग्लिन	-11558
▁सिक्ने	-11559
:4	-11560
▁दाल	-11561
▁आफूसँग	-11562
▁पहे	-11563
▁लेक	-11564
▁जबर्जस्ती	-11565
▁हाल्न	-11566
▁चन्द्रमा	-11567
▁चिन्	-11568
▁पसिना	-11569
▁मानिसहरूलाई	-11570
लील	-11571
टिको	-11572
ङ्खला	-11573
▁स्थिरता	-11574
▁स्टेशन	-11575
दायित्व	-11576
▁23	-11577
▁विस्तारको	-11578
▁ॐ	-11579
▁अभावका	-11580
५७	-11581
▁हमाल	-11582
क्र्स	-11583
▁गुप्त	-11584
▁हाम्रै	-11585
▁ट्याक्टर	-11586
विरोधी	-11587
▁महसुल	-11588
▁मृगौला	-11589
▁व्यक्तिका	-11590
बरमा	-11591
▁२०६२	-11592
▁जोडेको	-11593
▁ब्यापार	-11594
▁आसपासका	-11595
दिएका	-11596
जिनियर	-11597
▁महानगरपालिकाका	-11598
▁संयोग	-11599
▁बहानामा	-11600
▁च्याउ	-11601
▁प्रतिद्वन्द्वी	-11602
▁उपसमिति	-11603
ेलियन	-11604
ङ्दी	-11605
▁सेनामा	-11606
atest	-11607
▁गर्छौ	-11608
सेर	-11609
▁रेख	-11610
▁कोशि	-11611
▁सिंहको	-11612
▁ग्यारेन्टी	-11613
ont	-11614
▁पित	-11615
▁लगइन	-11616
सञ्चार	-11617
▁अभावले	-11618
झैँ	-11619
▁अखण्ड	-11620
▁प्रमोद	-11621
▁दिनभर	-11622
▁चुरे	-11623
▁सम्बन्धन	-11624
▁अध्ययनको	-11625
▁सेमिफाइनल	-11626
▁तँ	-11627
▁वर्षाका	-11628
▁मड्रिड	-11629
▁बदलि	-11630
ेन्सको	-11631
उदा	-11632
र्जि	-11633
▁जोगि	-11634
▁भब्य	-11635
▁युवाहरुलाई	-11636
▁अनुसन्धानको	-11637
▁फस्ट	-11638
▁मनाइँदै	-11639
▁टाई	-11640
▁मिठो	-11641
▁सुख्खा	-11642
▁पोल	-11643
▁दिइयो	-11644
▁न्यायालय	-11645
हेको	-11646
▁लाखौँ	-11647
छे	-11648
▁हामि	-11649
▁नेताहरूको	-11650
▁कोइ	-11651
▁तिहाइ	-11652
▁बहिष्कार	-11653
०७५	-11654
▁बर्से	-11655
पहिरो	-11656
तारा	-11657
▁तिथि	-11658
▁कसैसँग	-11659
▁सिन्डिकेट	-11660
शनमा	-11661
पोखरा	-11662
▁त्या	-11663
▁फुर्सद	-11664
▁माथी	-11665
यात्री	-11666
मार्फत्	-11667
ंगु	-11668
जेल	-11669
▁पढ्दै	-11670
▁सुमधुर	-11671
▁छोरालाई	-11672
ज्जा	-11673
▁छोड्न	-11674
▁तिहाई	-11675
बारेमा	-11676
ोल	-11677
साल	-11678
बरको	-11679
▁मिथि	-11680
▁उचा	-11681
अनुरुप	-11682
▁अनुभ	-11683
▁झुण्ड	-11684
▁मुस्किल	-11685
▁ओखलढुंगा	-11686
स्रा	-11687
▁गोलको	-11688
▁स्पेस	-11689
▁अप्ठेरो	-11690
▁जिवन	-11691
▁अपरान्ह	-11692
▁पुग्नेछ	-11693
▁अष्ट	-11694
han	-11695
▁कमाई	-11696
▁काभ्र	-11697
▁प्रसाई	-11698
▁महिलाहरुको	-11699
आइजी	-11700
▁लाम	-11701
▁होटेल	-11702
▁२००९	-11703
न्तब्य	-11704
वश	-11705
▁May	-11706
▁बैंकिङ्ग	-11707
▁भविष्यको	-11708
▁बीबीसीलाई	-11709
सेको	-11710
▁उल्टो	-11711
▁युनिट	-11712
▁विन्डोमा	-11713
▁आत्मविश्वास	-11714
▁सल्	-11715
▁४००	-11716
▁बीपी	-11717
▁महेन्द्रनगर	-11718
रायल	-11719
▁उहाँहरुले	-11720
▁भूमिगत	-11721
▁घण्टाको	-11722
▁च्याम्पियनसि	-11723
क्ष्म	-11724
▁ताप्लेजुङ	-11725
▁विमोचन	-11726
▁गिरफ्तार	-11727
▁हुनुपर्नेमा	-11728
▁चाहियो	-11729
▁बोक्ने	-11730
७९	-11731
▁परमप्रभु	-11732
नुहुन्थ्यो	-11733
▁जोर	-11734
मालो	-11735
▁घातक	-11736
▁निमन्त्रणा	-11737
▁मज्	-11738
▁हेल	-11739
▁राणाले	-11740
बाबा	-11741
▁दुर्घटनाको	-11742
▁बलात्कारको	-11743
▁क्षेत्रफलमा	-11744
▁देखे	-11745
▁ल्यापट	-11746
▁उहा	-11747
▁बैदेशिक	-11748
▁बुझाएका	-11749
end	-11750
▁नपुग्	-11751
▁आफैलाई	-11752
▁अख्तियारले	-11753
▁कांग्रेसमा	-11754
▁हटाइ	-11755
▁बेचेर	-11756
▁परदेश	-11757
▁जंगलमा	-11758
दरमा	-11759
▁लेखि	-11760
▁चेली	-11761
▁बुढी	-11762
▁बर्षीय	-11763
▁परिभाषा	-11764
णविक	-11765
द्री	-11766
डिरहेको	-11767
▁मनको	-11768
▁नवनिर्वाचित	-11769
▁लगत	-11770
▁दशै	-11771
▁विश्लेषक	-11772
▁उजागर	-11773
वंश	-11774
▁वंश	-11775
▁स्वे	-11776
▁म्याग	-11777
▁तान	-11778
मुल	-11779
▁आपत	-11780
ुत	-11781
▁मरेको	-11782
▁गुरू	-11783
▁आन्दोलनलाई	-11784
पुरी	-11785
▁कलेजको	-11786
▁भइसकेपछि	-11787
काठमाडौँ	-11788
▁दोहोरि	-11789
▁वेस्ट	-11790
▁सुनाइ	-11791
▁अवधिको	-11792
▁उठाएर	-11793
▁नसकेर	-11794
IV	-11795
▁धैर्य	-11796
▁प्याक	-11797
प्ला	-11798
▁वाई	-11799
▁मिसा	-11800
वाङ	-11801
म्ने	-11802
▁दुर	-11803
▁चट्या	-11804
▁फेस्टि	-11805
▁सङ्ख्यामा	-11806
▁गुड	-11807
▁उपमहानगर	-11808
▁मामिलामा	-11809
▁उपसभापति	-11810
▁देवकोटाको	-11811
▁खेले	-11812
▁मिलाइ	-11813
▁बहाल	-11814
▁बाजा	-11815
▁छाडेको	-11816
▁दैनिकको	-11817
▁विकल्	-11818
▁नपाउँदा	-11819
▁गर्नसक्ने	-11820
जरल्याण्ड	-11821
▁आपरा	-11822
▁विराट	-11823
▁सर्वसाधारणले	-11824
▁पालो	-11825
▁भरोसा	-11826
▁पाहुना	-11827
▁युनिभर्सि	-11828
▁Top	-11829
▁जीर्ण	-11830
▁सचेतक	-11831
▁महशुस	-11832
▁सेनालाई	-11833
▁सगरमाथाको	-11834
ong	-11835
न्ध्र	-11836
▁आहार	-11837
पर्य	-11838
▁गरीब	-11839
▁पढाउने	-11840
▁बोलि	-11841
▁काट्न	-11842
सेवक	-11843
▁सुबि	-11844
▁जुटेको	-11845
▁व्यवस्थालाई	-11846
बोध	-11847
वारि	-11848
▁सुटिङ	-11849
नुपर्दा	-11850
▁प्रदेशले	-11851
▁तराईमा	-11852
▁तयारीका	-11853
▁उनीहरूका	-11854
▁तिनीहरूको	-11855
▁अस्त	-11856
▁रोपा	-11857
▁पीडितको	-11858
▁म्यू	-11859
▁वढ	-11860
▁आत्ति	-11861
त्विक	-11862
▁चुहावट	-11863
▁देशबाट	-11864
▁बढाउँदै	-11865
ञ्जना	-11866
▁अवस्थाका	-11867
०२	-11868
प्रथम	-11869
▁थप्ने	-11870
एउ	-11871
ुले	-11872
▁निबन्ध	-11873
▁खोजि	-11874
▁ब्युरो	-11875
▁बेल्जिय	-11876
▁असम	-11877
▁टिमका	-11878
▁बाँदर	-11879
▁वैधानिक	-11880
▁अद्या	-11881
▁तीब्र	-11882
▁डेटा	-11883
▁महाअभियोग	-11884
यस्तो	-11885
▁कुँवर	-11886
लिटर	-11887
▁कर्मचारीहरु	-11888
▁कलेजो	-11889
▁काट्	-11890
पदार्थ	-11891
र्टमेन्ट	-11892
▁संरक्षक	-11893
पहिलो	-11894
▁हजारौँ	-11895
▁बोलाइएको	-11896
नागरिक	-11897
▁कारखाना	-11898
▁ओझा	-11899
साइट	-11900
क्यान	-11901
▁पस्	-11902
▁खेलकूद	-11903
णाम	-11904
७१	-11905
ज्जत	-11906
▁पलायन	-11907
▁उत्थान	-11908
▁कृत्रिम	-11909
ष्टी	-11910
परिषद्	-11911
▁विषयक	-11912
निकरण	-11913
▁भैर	-11914
▁सदै	-11915
ङ्गिक	-11916
▁सेतोपाटी	-11917
▁बजा	-11918
▁हातेमालो	-11919
tain	-11920
▁निर्बा	-11921
▁माग्दै	-11922
▁खोलि	-11923
▁सञ्चारमाध्यम	-11924
▁सुनेको	-11925
▁सेल	-11926
AT	-11927
ग्य	-11928
बाहक	-11929
▁विषादी	-11930
▁त्यसैको	-11931
▁कन्या	-11932
▁समयका	-11933
▁दाना	-11934
▁पुटिन	-11935
▁मेह	-11936
▁२०४६	-11937
▁प्रदिप	-11938
▁रविन्द्र	-11939
कुने	-11940
▁?”	-11941
▁कोटा	-11942
▁यात्रुको	-11943
▁अगस्ट	-11944
▁तरलता	-11945
▁बडी	-11946
▁व्याज	-11947
चालक	-11948
पाँच	-11949
▁वल्र्ड	-11950
▁पोजेटिभ	-11951
्यारी	-11952
▁बानि	-11953
▁महिने	-11954
▁नोक्सान	-11955
णमा	-11956
महिला	-11957
▁क्लिनिक	-11958
▁अर्कोतर्फ	-11959
▁किमी	-11960
▁ढोर	-11961
▁चल्यो	-11962
▁गौरवको	-11963
▁मधेसमा	-11964
▁मोबाइलमा	-11965
५२	-11966
▁दशकमा	-11967
ear	-11968
▁देखेका	-11969
▁क्यालिफोर्निया	-11970
▁बोलेको	-11971
▁ह्वाट्सएप	-11972
▁अनुपा	-11973
▁डरले	-11974
▁थोक	-11975
ध्व	-11976
▁2019	-11977
▁हस्पिटल	-11978
रोस्	-11979
▁एकदिन	-11980
▁शाल	-11981
वसायी	-11982
▁लेखे	-11983
▁सम्हा	-11984
प्रतिशत	-11985
▁लकडाउनको	-11986
ुश	-11987
▁असं	-11988
किँदा	-11989
▁हटाएर	-11990
▁औंल्या	-11991
▁नजा	-11992
▁सोझै	-11993
ED	-11994
्यौँ	-11995
▁वर्षिय	-11996
र्ल	-11997
▁अमे	-11998
▁प्राज्ञ	-11999
▁आन्दोलनरत	-12000
▁बुझ्नु	-12001
▁लडेर	-12002
▁फड्को	-12003
कुण्ड	-12004
▁नीतिको	-12005
▁आपराधिक	-12006
up	-12007
घार	-12008
▁गीता	-12009
▁सुरज	-12010
▁गायन	-12011
बजारमा	-12012
▁पुगेकी	-12013
▁सित	-12014
▁आणविक	-12015
▁तामाङको	-12016
सिने	-12017
▁तिर्	-12018
▁विस्तारमा	-12019
गठ	-12020
▁गुला	-12021
▁चोकमा	-12022
▁सार्थक	-12023
▁महानगरले	-12024
पिए	-12025
पुछ	-12026
▁रुट	-12027
मानको	-12028
▁भगवती	-12029
▁वर्षाको	-12030
??	-12031
▁भूमिमा	-12032
▁(3	-12033
▁गर्नेको	-12034
▁महानगरको	-12035
▁Inter	-12036
▁कत्तिको	-12037
▁प्रणालीलाई	-12038
▁गोठ	-12039
▁काे	-12040
▁नगरको	-12041
▁सारिएको	-12042
▁विषयगत	-12043
▁ब्याट्सम्यान	-12044
▁सोसल	-12045
▁क्यापिटल	-12046
▁उत्तरदायित्व	-12047
▁एनएम	-12048
▁स्टल	-12049
रिक्षक	-12050
▁डेब्यु	-12051
▁भान्	-12052
▁निर्णयले	-12053
▁उद्योगलाई	-12054
▁विश्वविद्यालयमा	-12055
▁200	-12056
▁ठमेल	-12057
▁अब्बल	-12058
▁असाध्यै	-12059
▁एलि	-12060
▁एकपछि	-12061
▁बसको	-12062
▁किच	-12063
▁पदयात्रा	-12064
▁पुगिसकेको	-12065
▁अश्लील	-12066
▁काउन्टर	-12067
▁वर्गीकरण	-12068
are	-12069
▁8.	-12070
▁जातको	-12071
▁ग्याले	-12072
सिटी	-12073
▁श्रीकृष्ण	-12074
▁समिक्षा	-12075
▁गुरा	-12076
▁जनकपुरमा	-12077
गाँ	-12078
▁श्रेणी	-12079
स्का	-12080
▁सत्ताको	-12081
▁मिडियाले	-12082
▁आधुनिकीकरण	-12083
फोटोफिचर	-12084
▁गार्	-12085
▁डिसी	-12086
जुट	-12087
▁बैंकलाई	-12088
▁प्रशान्त	-12089
▁प्रतिनिधिसभामा	-12090
▁थलो	-12091
त्मिक	-12092
▁विष्फोट	-12093
▁घटनाक्रम	-12094
क्सो	-12095
▁नीतिमा	-12096
शंकर	-12097
▁ढाका	-12098
▁विद्यार्थीहरु	-12099
▁दाङको	-12100
३४	-12101
ags	-12102
घट	-12103
▁बढ्दा	-12104
▁हैसियतमा	-12105
▁प्रविधिमा	-12106
▁सप्ता	-12107
▁केटाकेट	-12108
▁घिसि	-12109
▁म्यानपावर	-12110
▁टिमलाई	-12111
▁खत्रीले	-12112
▁झार	-12113
▁छोड्ने	-12114
भण्ड	-12115
लेन्द्र	-12116
▁लोप	-12117
▁असमान	-12118
▁सुशा	-12119
▁मारेको	-12120
बिधि	-12121
▁०७४	-12122
▁इन्ट	-12123
▁आरोही	-12124
▁हामीसंग	-12125
▁चलचित्रका	-12126
भाड	-12127
▁मैत्रीपूर्ण	-12128
सागर	-12129
मानव	-12130
▁केसीका	-12131
▁बैठकबाट	-12132
ime	-12133
▁चाउ	-12134
▁नामले	-12135
▁अविरल	-12136
▁बन्धक	-12137
न्छी	-12138
न्टन	-12139
▁उनीहरुका	-12140
दैछ	-12141
▁बोक्	-12142
▁अक	-12143
▁परिश्रम	-12144
▁मिलाइएको	-12145
▁एसई	-12146
▁घिसिङ	-12147
▁आइपुगेका	-12148
▁हरुको	-12149
▁बाजुरा	-12150
स्तान	-12151
▁नरेश	-12152
▁कथामा	-12153
सामाजिक	-12154
▁बायो	-12155
ेन्टिले	-12156
▁अमेरिकन	-12157
▁समस्याबाट	-12158
▁सुक्	-12159
▁मार्गमा	-12160
▁ग्राहकको	-12161
▁मोर्चाको	-12162
▁देवेन्द्र	-12163
▁म्यारा	-12164
▁मर्का	-12165
▁सङ्केत	-12166
▁नबो	-12167
बारीमा	-12168
▁मम	-12169
▁मेघ	-12170
▁वैवाहिक	-12171
▁वैशाखमा	-12172
५४	-12173
▁नबढ	-12174
▁क्लबको	-12175
▁उठाइ	-12176
ारीमा	-12177
२०१८	-12178
▁प्रलोभ	-12179
▁रातको	-12180
भोलि	-12181
उँछु	-12182
▁माहो	-12183
▁घरजग्गा	-12184
▁क्रान्तिको	-12185
▁याे	-12186
▁गोरु	-12187
▁पाकिस्तानको	-12188
▁बचा	-12189
▁रुघा	-12190
old	-12191
सेक	-12192
▁22	-12193
▁हिमपात	-12194
स्वी	-12195
▁मुहान	-12196
▁साक्षा	-12197
▁क्षतिग्रस्त	-12198
ide	-12199
▁न्यायपालिका	-12200
▁बढाएका	-12201
मण्डल	-12202
▁पुत्र	-12203
▁धनगढीमा	-12204
▁चल्दै	-12205
▁सातादेखि	-12206
▁सान्दर्भिक	-12207
▁दिंदै	-12208
खेलमा	-12209
▁तेक्वा	-12210
▁महत्वका	-12211
▁दिपेन्द्र	-12212
▁महत्वपुर्ण	-12213
▁शाखाले	-12214
रणीय	-12215
सामान्य	-12216
विको	-12217
▁आविष्कार	-12218
▁पार्टीबाट	-12219
तीका	-12220
▁शेखर	-12221
yakhabar	-12222
▁प्रोट	-12223
▁उपप्रधान	-12224
▁ch	-12225
▁पौड	-12226
▁पवन	-12227
न्समा	-12228
▁खुकुरी	-12229
▁अलै	-12230
लक्ष्मी	-12231
▁आमन्त्र	-12232
झाव	-12233
▁बुझ्	-12234
▁प्रतिस्थापन	-12235
▁स्वाब	-12236
▁जवाफदे	-12237
▁बनाइएका	-12238
▁इन्टरनेशनल	-12239
▁बिहीवार	-12240
भोज	-12241
▁खानले	-12242
▁धारण	-12243
▁फिल्मका	-12244
▁जोगा	-12245
▁समयअघि	-12246
▁चुस्त	-12247
▁दिनेछ	-12248
▁जाहेरी	-12249
▁उत्प्रेर	-12250
ब्रो	-12251
▁प्रतीक	-12252
▁साइबर	-12253
तान	-12254
▁ताइ	-12255
▁भ्वाइस	-12256
▁पण्डितले	-12257
एला	-12258
▁मृतकको	-12259
▁एकजुट	-12260
▁2021	-12261
▁आगजनी	-12262
▁दुर्व्यवहार	-12263
बिन्दु	-12264
▁अध्यापन	-12265
▁फर्किएको	-12266
शास्त्री	-12267
▁अर्व	-12268
▁तला	-12269
▁लायक	-12270
दीमा	-12271
ेश्य	-12272
▁जुटेका	-12273
टस	-12274
बुबा	-12275
▁थपलिया	-12276
▁विही	-12277
लबन्दी	-12278
▁कित्	-12279
▁भएता	-12280
▁पोखराका	-12281
▁मोर्चाका	-12282
▁आइफोन	-12283
▁मुलुकभर	-12284
क्र्या	-12285
▁एमबी	-12286
अनुरूप	-12287
▁करिडोर	-12288
▁मानिसहरुको	-12289
▁ज्यू	-12290
▁शम्भु	-12291
▁सुर्य	-12292
▁चौतर्फी	-12293
▁बिराटनगर	-12294
▁ढिलाई	-12295
▁थप्न	-12296
▁भत्का	-12297
▁सुत्ने	-12298
▁बाल्य	-12299
▁!!!	-12300
▁धमला	-12301
पार्टी	-12302
▁गोलले	-12303
▁व्यवहारिक	-12304
र्सी	-12305
▁तहबाट	-12306
▁कने	-12307
▁पकाउने	-12308
▁हेर्नुस	-12309
▁भेन्टिले	-12310
▁छाडि	-12311
▁सदस्यहरुले	-12312
र्चुअल	-12313
▁ब्याट्री	-12314
फोर	-12315
▁Im	-12316
डाले	-12317
▁स्वाभि	-12318
▁एटि	-12319
▁डढ	-12320
▁एकाउ	-12321
च्छे	-12322
▁धातु	-12323
▁रसुवागढी	-12324
▁पूर्वमन्त्री	-12325
उनुभएको	-12326
राजनीतिक	-12327
▁निर्वाचनलाई	-12328
▁रेष्टुरेन्ट	-12329
:1	-12330
▁रबि	-12331
▁April	-12332
▁डुबानमा	-12333
▁गुण्डा	-12334
▁जटिलता	-12335
▁आवतजावत	-12336
जहाज	-12337
▁Oct	-12338
▁दिउ	-12339
▁खोलाको	-12340
▁प्रकृतिका	-12341
▁महिलामा	-12342
▁November	-12343
▁डिफ	-12344
कम्पमा	-12345
▁बेइजिङ	-12346
▁क्षय	-12347
▁कल्	-12348
ग्रेस	-12349
▁जुम्लामा	-12350
▁घाँस	-12351
▁हिं	-12352
▁असुल	-12353
स्तिका	-12354
▁डडेल्धुरा	-12355
▁विस्तारका	-12356
▁व्यक्तिहरू	-12357
▁अधिकारकर्मी	-12358
▁भक्तजन	-12359
▁Mess	-12360
▁करेन्ट	-12361
▁पोस्टर	-12362
सँ	-12363
▁नफ	-12364
▁नियोग	-12365
▁उठाउँदै	-12366
▁संरचनाको	-12367
▁इन्टरनेटको	-12368
▁म्यानमार	-12369
▁श्रेण	-12370
पक्व	-12371
▁उपधारा	-12372
▁मिनेटको	-12373
▁पुनःस्थापना	-12374
▁देशव्यापी	-12375
छक्का	-12376
▁गुठी	-12377
▁२००६	-12378
▁कैलाश	-12379
▁भित्र्याउन	-12380
▁पन्जा	-12381
▁चहल	-12382
▁पितृ	-12383
▁वासि	-12384
▁अनुशा	-12385
▁मिल्यो	-12386
▁रक्षामन्त्री	-12387
विन्दु	-12388
▁समेट्छ	-12389
▁वृद्धा	-12390
म्न	-12391
▁झे	-12392
ेन्च	-12393
सेनापति	-12394
▁बिक्रि	-12395
▁यसवर्ष	-12396
यज्ञ	-12397
हाल्छ	-12398
▁एनआई	-12399
▁ग्रि	-12400
▁यहीँ	-12401
▁वक्ता	-12402
▁सदस्यहरुको	-12403
▁स्टाइ	-12404
▁सातामा	-12405
▁महाधिवेशनको	-12406
भाउ	-12407
▁नवौं	-12408
▁विमानस्थलबाट	-12409
भयो	-12410
▁प्रतीक्षा	-12411
▁धाम	-12412
▁छैटौं	-12413
ational	-12414
▁भित्रिएको	-12415
▁लाभान्वित	-12416
५९	-12417
▁खुले	-12418
▁साबित	-12419
▁गेम	-12420
▁फाँ	-12421
ure	-12422
▁छः	-12423
▁उद्धृत	-12424
▁टंक	-12425
▁सर्तहरू	-12426
▁अल्ट	-12427
शिक्षा	-12428
▁बजेटले	-12429
जात्रा	-12430
▁तस्कर	-12431
▁प्रशासनको	-12432
▁नेताका	-12433
▁राजमार्गमा	-12434
▁विजया	-12435
▁हानिकारक	-12436
▁मुहार	-12437
वलम्	-12438
▁तप	-12439
▁दुखाइ	-12440
▁महिलाहरू	-12441
▁आना	-12442
▁सिनियर	-12443
▁युट्युब	-12444
▁उपलव्	-12445
▁बोध	-12446
▁घटनाबारे	-12447
▁रोजगारदाता	-12448
पोज	-12449
▁उपाध्यायले	-12450
▁प्रतियोगिताका	-12451
राखेको	-12452
▁राजाको	-12453
▁किशो	-12454
▁नापी	-12455
▁पेटमा	-12456
गुरु	-12457
▁पोलिट	-12458
▁पारा	-12459
▁बिष्णु	-12460
च्युट	-12461
▁दुग्ध	-12462
▁लैंगिक	-12463
▁जीवनलाई	-12464
▁अंकको	-12465
▁खरिदमा	-12466
:3	-12467
▁ठाडो	-12468
▁ग्रेड	-12469
ामै	-12470
▁चित्रमा	-12471
▁आइडल	-12472
सुन्दर	-12473
cc	-12474
▁विच्छेद	-12475
▁परीक्षणमा	-12476
▁तेक्वान्दो	-12477
▁बहुउ	-12478
▁खबरदारी	-12479
▁एन्टि	-12480
▁क्वाटर	-12481
▁अध्यागमन	-12482
▁मतले	-12483
▁पाँचथ	-12484
▁विद्यार्थीहरुलाई	-12485
▁समस्याहरु	-12486
▁30	-12487
▁स्टेज	-12488
▁उर्लाबारी	-12489
खमा	-12490
त्तमा	-12491
▁बापत	-12492
▁डुबेर	-12493
▁रिजालले	-12494
▁आक्रमणबाट	-12495
▁बमोजिमको	-12496
▁डाक्टरको	-12497
▁भएनन्	-12498
रोधा	-12499
▁लिंकका	-12500
▁कोड	-12501
▁हरित	-12502
▁भण्डार	-12503
▁डाक्टरले	-12504
▁दशरथ	-12505
▁हाजिर	-12506
बर्ग	-12507
▁गणित	-12508
▁भिन्नता	-12509
▁घिमिरेको	-12510
▁अरूको	-12511
wik	-12512
▁डेमो	-12513
▁ड्रा	-12514
▁असारमा	-12515
▁पम्प	-12516
▁छाड्न	-12517
▁उत्पादनका	-12518
▁साथीहरू	-12519
▁लाज	-12520
▁अम्ब	-12521
▁छोडि	-12522
त्यक्ष	-12523
▁आईसीसी	-12524
▁खगेन्द्र	-12525
प्रेमी	-12526
▁तोकिए	-12527
▁मेश	-12528
अमेरिका	-12529
त्साहित	-12530
▁इलेक्ट्रो	-12531
▁नेपालीहरुले	-12532
▁खण्डको	-12533
▁इतिहासको	-12534
▁फेसबुकबाट	-12535
▁गठनको	-12536
▁कोर	-12537
▁सङ्कट	-12538
▁कुर्सी	-12539
न्नुहोस्	-12540
▁दाह	-12541
▁निगमका	-12542
▁बन्दरगाह	-12543
▁बसिरहेका	-12544
▁लाभग्राही	-12545
ook	-12546
▁वय	-12547
▁बनाउँ	-12548
▁वेबसाइटहरुको	-12549
▁डोटी	-12550
▁आध्या	-12551
▁आम्दानीको	-12552
▁गराइने	-12553
▁पाउँदैन	-12554
▁आर्	-12555
▁माननीय	-12556
किरहेको	-12557
▁कर्जाको	-12558
▁लायन्स	-12559
▁प्रतिव्यक्ति	-12560
▁पछिको	-12561
▁सम्वन्धी	-12562
▁बर्षिय	-12563
▁बाहेकका	-12564
▁युट्युबमा	-12565
▁उठेका	-12566
▁युद्धमा	-12567
ियु	-12568
▁कोषका	-12569
▁सङ्घका	-12570
▁देखाइएको	-12571
▁युगमा	-12572
▁पंक्ति	-12573
ौडा	-12574
▁नुह	-12575
भरको	-12576
▁बीस	-12577
▁एयरको	-12578
▁चक्रपथ	-12579
▁सोचेको	-12580
▁भूत	-12581
▁बड	-12582
ie	-12583
enger	-12584
र्जनको	-12585
▁गौतमको	-12586
▁सचिवमा	-12587
▁हिँड्न	-12588
हात	-12589
▁फेसन	-12590
▁वाग्मती	-12591
▁मोवाइ	-12592
▁जन्मेको	-12593
▁पल्टि	-12594
▁बिचमा	-12595
सेयर	-12596
▁कोलम्ब	-12597
▁ग्रन्थ	-12598
धिकारी	-12599
फू	-12600
▁छाता	-12601
▁परेकी	-12602
▁फर्नि	-12603
▁निर्दोष	-12604
▁शिक्षकले	-12605
▁योसँगै	-12606
▁क्वारेन्ट	-12607
▁रोक्का	-12608
पहा	-12609
▁हुनुपर्दछ	-12610
▁स्वतन्त्रताको	-12611
▁बसी	-12612
▁झरना	-12613
▁उल्टै	-12614
▁at	-12615
ढुङ्गा	-12616
▁लक्ष्यका	-12617
▁सिग्	-12618
▁झाँ	-12619
▁भन्छु	-12620
▁महंगो	-12621
गर्दै	-12622
▁मीन	-12623
ानुमान	-12624
▁कार्यकर्ताको	-12625
▁झिक	-12626
▁केन्या	-12627
▁क्षेत्रीले	-12628
▁उपर	-12629
▁खेतमा	-12630
▁कार्यहरु	-12631
▁प्रयोगले	-12632
।\	-12633
सडक	-12634
itle	-12635
▁nepal	-12636
▁नाकामा	-12637
▁भ्रष्टाचारको	-12638
▁थर	-12639
रियल	-12640
समूह	-12641
▁दाता	-12642
▁भूगोल	-12643
▁आफन्तले	-12644
▁भ्याले	-12645
▁क्षमतामा	-12646
▁चित्रण	-12647
▁लिङ्कहरु	-12648
▁लख	-12649
▁जिति	-12650
▁वहाँ	-12651
▁गीतले	-12652
▁देखाए	-12653
▁अन्तरवार्ता	-12654
३७	-12655
▁चलान	-12656
र्डिङ	-12657
▁प्रगतिशील	-12658
▁इन्टरनेसनल	-12659
▁June	-12660
रामीले	-12661
▁गोकुल	-12662
▁सम्पत्तिको	-12663
▁(1)	-12664
बोर्ड	-12665
▁बाइक	-12666
▁शर्मालाई	-12667
▁इन्डियन	-12668
▁स्कीप	-12669
▁हुम्ला	-12670
▁सुरुवाती	-12671
ruary	-12672
षाढ	-12673
ालिङ	-12674
▁प्रोड	-12675
तल	-12676
▁खासमा	-12677
▁भंग	-12678
▁प्यानेल	-12679
▁Messenger	-12680
▁पत्रकारलाई	-12681
▁चाहिं	-12682
▁झैँ	-12683
▁गराउँछ	-12684
▁बढाउँछ	-12685
▁आयाम	-12686
▁मंसिरमा	-12687
▁कार्यभार	-12688
▁आइड	-12689
▁छानि	-12690
▁माथिका	-12691
▁भन्नाले	-12692
गारमा	-12693
▁२०६७	-12694
▁वजन	-12695
णात्मक	-12696
▁खुकुलो	-12697
▁नेपालसँग	-12698
.1	-12699
बन्धक	-12700
▁अाज	-12701
▁मिसन	-12702
▁गीतहरु	-12703
▁लिनुपर्छ	-12704
▁थाइल्यान्ड	-12705
▁पिछ	-12706
▁निरौला	-12707
गाउँमा	-12708
ट्य	-12709
दास	-12710
▁अलम	-12711
▁जातका	-12712
▁कथित	-12713
▁झापाका	-12714
▁सुनसरीको	-12715
त्वको	-12716
▁उपलब्धी	-12717
▁गाविसमा	-12718
▁मजा	-12719
एसम्म	-12720
हिद	-12721
पुले	-12722
ाउनुहोस्	-12723
▁यादवलाई	-12724
▁बुझिएको	-12725
▁महर्जनले	-12726
जीपी	-12727
▁चुनौतीपूर्ण	-12728
वलीमा	-12729
▁रत्नपार्क	-12730
▁इकाई	-12731
मलेन्द्र	-12732
▁त्योभन्दा	-12733
ियाको	-12734
योग्रा	-12735
▁रोगका	-12736
▁बोलेका	-12737
▁प्रतिनिधी	-12738
▁२५०	-12739
धारमा	-12740
पछिका	-12741
▁शायद	-12742
▁वेबसाइटमा	-12743
बलमा	-12744
देशीय	-12745
▁फर्किन	-12746
▁परिवर्तनहरू	-12747
▁उब्	-12748
▁गतिविधिमा	-12749
▁जनशक्तिको	-12750
ill	-12751
ुम्बा	-12752
tainment	-12753
▁दिलाउने	-12754
▁उम्मेदवारलाई	-12755
जब	-12756
पालो	-12757
नीलाई	-12758
▁लिंग	-12759
▁अधिनायक	-12760
पसार	-12761
▁प्रतिष्पर्धा	-12762
▁जायज	-12763
▁सुम्प	-12764
▁सीमामा	-12765
▁एसियन	-12766
▁अनुमा	-12767
▁प्रर्दशन	-12768
▁पेनाल्टी	-12769
▁पौडेललाई	-12770
ce	-12771
▁समाजिक	-12772
▁वर्षेनी	-12773
▁मानसिकता	-12774
▁मुख्यमन्त्रीको	-12775
▁ताज	-12776
▁खानको	-12777
▁नहोला	-12778
निर्वाचन	-12779
▁समाधानको	-12780
.,	-12781
▁संग्रहालय	-12782
ँडि	-12783
▁एथ	-12784
▁तिलो	-12785
▁एमालेमा	-12786
▁समक	-12787
ात्मक	-12788
▁सँधै	-12789
▁सर्वोच्चमा	-12790
ष्ठमा	-12791
▁सदैव	-12792
सुझाव	-12793
▁छापिएको	-12794
▁गोदावरी	-12795
▁विचारमा	-12796
▁एक्सच	-12797
▁चाइना	-12798
▁प्रोत्साहित	-12799
भै	-12800
▁गतवर्ष	-12801
▁बहुमुखी	-12802
▁घराय	-12803
पश्चात	-12804
WS	-12805
▁निलम्ब	-12806
▁म्यानचेस्टर	-12807
▁कैयौं	-12808
▁आक्रोशित	-12809
▁फौजदारी	-12810
▁गरु	-12811
जेको	-12812
▁सोधपुछ	-12813
▁July	-12814
▁घटनास्थलमै	-12815
छौँ	-12816
जाति	-12817
▁नोबेल	-12818
▁दर्जनौं	-12819
▁इङ्	-12820
▁ब्यूरो	-12821
▁सिद्धि	-12822
▁जनसंख्याको	-12823
▁अन्तिममा	-12824
शीला	-12825
▁अहि	-12826
▁सहकर्मी	-12827
मौ	-12828
▁खेल्नेछ	-12829
▁एमालेबाट	-12830
▁कोश	-12831
▁गिरोह	-12832
▁February	-12833
▁यातायातको	-12834
इओ	-12835
मुख्य	-12836
▁प्रधानसेनापति	-12837
ah	-12838
▁अधिकारीहरूले	-12839
▁पराजय	-12840
न्यायाधि	-12841
ट्रिक	-12842
▁खोपको	-12843
▁पेन्सन	-12844
▁निर्णयलाई	-12845
▁व्यक्तिहरुको	-12846
▁जोगाउने	-12847
▁दिइन्छ	-12848
▁मिलेमतो	-12849
▁भूकम्पमा	-12850
▁मनोविज्ञान	-12851
▁गोपनीय	-12852
▁जडीबुटी	-12853
वाका	-12854
▁बिपी	-12855
▁प्रतिक्षा	-12856
▁Latest	-12857
▁घटनाहरू	-12858
▁मुलुकबाट	-12859
▁शोभा	-12860
कस	-12861
000	-12862
▁तमा	-12863
▁अनुपातमा	-12864
ld	-12865
▁संका	-12866
पलाञ्चोक	-12867
▁जन्मेका	-12868
▁भित्रिने	-12869
▁मगरको	-12870
वाहित	-12871
▁दरखास्त	-12872
▁व्यवसायको	-12873
▁आर्ट	-12874
▁फेर्न	-12875
▁भिड्दै	-12876
▁सबैतिर	-12877
▁कार्यसमितिको	-12878
शमशेर	-12879
्रोन	-12880
▁दोषीलाई	-12881
▁बानियाँ	-12882
▁नुवाकोटमा	-12883
▁छाती	-12884
ङ्ग्रेजी	-12885
▁जस्ताको	-12886
▁सन्दीपले	-12887
▁भिडियोहरु	-12888
४३	-12889
▁ऋणको	-12890
▁कलेजका	-12891
▁संस्थापन	-12892
▁शुक्रबारदेखि	-12893
aw	-12894
पाती	-12895
▁करोडभन्दा	-12896
▁प्रदेशसभाका	-12897
मिस	-12898
▁भर्चुअल	-12899
▁बालिकालाई	-12900
वेणी	-12901
▁गरीएको	-12902
डीयो	-12903
▁सक्दिन	-12904
▁विश्वविद्यालयले	-12905
▁शुरुमा	-12906
▁हप्ताको	-12907
▁पुनरावलोकन	-12908
▁घरघरमा	-12909
▁बेलाबेला	-12910
▁खोजमूलक	-12911
▁प्रदेशलाई	-12912
▁लण्डन	-12913
▁साक्षात्कार	-12914
▁सकु	-12915
▁पार्नु	-12916
alo	-12917
ब्रा	-12918
त्तिय	-12919
▁टोपी	-12920
▁फागुनमा	-12921
▁क्लो	-12922
र्के	-12923
▁सोहि	-12924
निर्देश	-12925
▁पूर्वाधारको	-12926
▁चल्छ	-12927
एजेन्सी	-12928
▁गर्छिन्	-12929
▁जुध	-12930
▁बाहिरिएको	-12931
▁भूकम्पबाट	-12932
▁लिमिटेडको	-12933
▁आले	-12934
▁प्रवन्ध	-12935
फत	-12936
▁घरदैलो	-12937
▁चुनावका	-12938
▁सिकाउने	-12939
▁पुस्तकको	-12940
▁प्रदर्शनकारी	-12941
▁ट्यु	-12942
▁साइत	-12943
▁भेट्ने	-12944
नेपालमा	-12945
▁क्यामरा	-12946
▁बनेकी	-12947
▁नाति	-12948
▁त्रिशू	-12949
▁नाकाबाट	-12950
▁बाहिरका	-12951
▁बैंकहरुले	-12952
▁भृ	-12953
डम्ब	-12954
▁सर्ने	-12955
▁अक्सर	-12956
▁जातिको	-12957
▁टिपर	-12958
▁झुट	-12959
▁https	-12960
▁खेलका	-12961
▁संघमा	-12962
▁हनुमान	-12963
▁पोर्चुग	-12964
कुमा	-12965
▁आँच	-12966
ंशी	-12967
बजारी	-12968
▁सुरुङमा	-12969
▁फैस	-12970
▁नदिई	-12971
▁पाएन	-12972
▁भाँडा	-12973
▁कोरियाका	-12974
देल	-12975
विशेष	-12976
▁इजरायल	-12977
टुर	-12978
▁पाठे	-12979
▁क्लबमा	-12980
▁वार्ताको	-12981
▁गरिसकेपछि	-12982
▁v	-12983
▁गतिलो	-12984
▁सरिता	-12985
▁मानिसहरुले	-12986
▁अंकमा	-12987
कर्ताको	-12988
▁संजालमा	-12989
▁उहाँहरु	-12990
▁मतदाताले	-12991
▁समया	-12992
▁बच्च	-12993
र्धन	-12994
▁मनोनित	-12995
सीलाई	-12996
▁रेडक्रस	-12997
भास	-12998
चिन्त	-12999
▁तौ	-13000
▁नउ	-13001
▁अँध्य	-13002
▁भ्याक्स	-13003
▁बाथ	-13004
पहल	-13005
नमार्क	-13006
▁बूढी	-13007
▁इनि	-13008
▁असोजमा	-13009
न्जन	-13010
टरको	-13011
▁एकछिन	-13012
▁भेडा	-13013
▁पहिल्यै	-13014
ोषित	-13015
▁टीकापुर	-13016
▁योजनाका	-13017
संगको	-13018
महान	-13019
index	-13020
▁भन्थे	-13021
▁ओझेलमा	-13022
▁संज्ञा	-13023
▁लिँदा	-13024
▁मातहतका	-13025
▁पेन्	-13026
▁बिजयी	-13027
उनको	-13028
पारि	-13029
थरी	-13030
▁चौर	-13031
भरिका	-13032
चौकी	-13033
▁जर्ज	-13034
▁साँघ	-13035
▁बरालले	-13036
▁युद्धको	-13037
▁लापरवाही	-13038
▁राख्नुपर्छ	-13039
▁पूर्वानुमान	-13040
६३	-13041
▁बर्सेनि	-13042
▁भेलामा	-13043
▁निष्क्रिय	-13044
▁स्थानीयवासीले	-13045
▁सदनमा	-13046
▁योजनाहरु	-13047
▁पहिलेदेखि	-13048
▁९८४	-13049
दिष्ट	-13050
▁प्रमुखमा	-13051
▁निभ	-13052
▁राजकीय	-13053
▁क्यान्स	-13054
▁जन्मदिनको	-13055
74	-13056
्र्य	-13057
▁क्वारेन्टाइन	-13058
▁मिहिनेत	-13059
गै	-13060
▁सबैजसो	-13061
▁नागरिकताको	-13062
▁एट	-13063
▁उत्खनन	-13064
▁संसोधन	-13065
▁म्यूजिक	-13066
▁दुरी	-13067
वह	-13068
▁मेलाको	-13069
▁गराउनुपर्ने	-13070
▁ग्	-13071
▁नवलपरासीको	-13072
▁मेमो	-13073
:5	-13074
▁धरौटी	-13075
▁Rat	-13076
▁वकाल	-13077
वैज्ञानिक	-13078
्राम	-13079
▁अभिमुख	-13080
▁पुरुषो	-13081
▁हातबाट	-13082
▁राजमार्गको	-13083
▁बिभाग	-13084
▁चिनिने	-13085
▁भित्रका	-13086
मञ्च	-13087
▁चकित	-13088
▁सुबिधा	-13089
▁परिषद्ले	-13090
▁अहिलेसम्मकै	-13091
▁क्वि	-13092
▁कर्मा	-13093
बीले	-13094
▁बाँधि	-13095
▁वित्तिय	-13096
▁सदस्यहरू	-13097
▁अद्यावधिक	-13098
▁रिप	-13099
▁इन्डिया	-13100
▁धिर	-13101
▁बाइबल	-13102
▁पुनरावेदन	-13103
५३	-13104
माणु	-13105
▁सक्दैनौं	-13106
▁सकिरहेको	-13107
्यारि	-13108
▁गुम्बा	-13109
▁दशमलब	-13110
▁झ्याल	-13111
कर्ताले	-13112
▁मिड	-13113
▁शानदार	-13114
▁लय	-13115
▁कट्ट	-13116
▁घृणा	-13117
▁पक्षधर	-13118
्राचार्य	-13119
▁पूर्वराजा	-13120
ेग	-13121
▁फ्रिज	-13122
▁टाउकोमा	-13123
▁सिंहदरबारमा	-13124
अफ	-13125
▁२०६५	-13126
ाउदै	-13127
▁टाढ	-13128
▁म्यानेज	-13129
▁शक्तिले	-13130
▁सुनिश्चितता	-13131
▁माक्र्स	-13132
▁कमिसन	-13133
▁भवानी	-13134
▁मकवानपुरको	-13135
वेल	-13136
▁हलिउड	-13137
▁घरायसी	-13138
▁गर्नेछु	-13139
ेरिय	-13140
▁सुह	-13141
▁सम्भवतः	-13142
▁त्यसतर्फ	-13143
▁वाक्य	-13144
▁चेकजाँच	-13145
▁परिषदको	-13146
वो	-13147
ura	-13148
▁प्रसू	-13149
▁हत्याका	-13150
ब्ध	-13151
▁लोह	-13152
▁सोचमा	-13153
▁गरेरै	-13154
▁वडाको	-13155
▁च्याले	-13156
▁मार्केट	-13157
▁निकाल्दै	-13158
▁राज्यलाई	-13159
पीएस	-13160
लनको	-13161
uryakhabar	-13162
▁दलमा	-13163
▁डेस्क	-13164
▁रकममा	-13165
▁मेक	-13166
▁सवा	-13167
▁गैँडा	-13168
▁रामकृष्ण	-13169
▁निर्मलाको	-13170
▁नागरिकका	-13171
▁युर	-13172
▁नजिकबाट	-13173
▁चलेका	-13174
हले	-13175
लाउन	-13176
इसकेको	-13177
▁नपाएका	-13178
▁जडि	-13179
▁सानि	-13180
ङ्गमा	-13181
▁मिश्रले	-13182
▁स्पेनिस	-13183
साइड	-13184
गेटिभ	-13185
ital	-13186
▁बिश	-13187
▁आइसोलेसन	-13188
बाली	-13189
▁चौधरीलाई	-13190
▁आध्यात्मिक	-13191
▁रिसर्च	-13192
▁टिप	-13193
नेश्व	-13194
पथ्र्यो	-13195
IM	-13196
▁अमा	-13197
▁आत्मसात	-13198
▁रुपैयाँभन्दा	-13199
▁कार्यपालिकाको	-13200
▁ऐश्व	-13201
▁अग्रज	-13202
क्ला	-13203
दास्पद	-13204
▁बालविवाह	-13205
pp	-13206
▁जान्ने	-13207
▁उमेदवार	-13208
▁सुनाएको	-13209
▁नोक	-13210
title	-13211
▁कमेडी	-13212
▁अन्तरिक्ष	-13213
▁विश्वसनीय	-13214
▁रुपन्देहीको	-13215
िनले	-13216
▁टीम	-13217
▁लाग्नेछ	-13218
▁गोरे	-13219
▁पछाडी	-13220
▁माछापु	-13221
पट्टि	-13222
▁बुझाई	-13223
बाङ	-13224
कति	-13225
▁गएकी	-13226
▁फूलको	-13227
▁संघीयताको	-13228
खेत	-13229
वीच	-13230
मीका	-13231
▁BBC	-13232
▁लम्ब	-13233
टुरोग	-13234
▁यससँगै	-13235
▁रुद्र	-13236
▁गर्नमा	-13237
▁सौराहा	-13238
▁नवनियुक्त	-13239
▁मोटरसाइकलमा	-13240
झै	-13241
▁गुग	-13242
▁ढल	-13243
▁दाग	-13244
▁रोकिएका	-13245
▁पर्यटकले	-13246
परिणाम	-13247
▁पोशाक	-13248
▁साथसाथै	-13249
▁आकांक्षा	-13250
▁गरिरहेकी	-13251
▁उपे	-13252
▁नपु	-13253
सबाट	-13254
▁आरक्षण	-13255
केर	-13256
खोकी	-13257
भिडिया	-13258
▁आयातमा	-13259
▁अनुबन्ध	-13260
लीका	-13261
▁बिगा	-13262
▁अगावै	-13263
▁आकाशमा	-13264
▁महायज्ञ	-13265
▁ब्यवस्थापन	-13266
▁दीपिका	-13267
▁अड	-13268
▁सयौँ	-13269
▁सुनचाँदी	-13270
▁व्यक्तिमा	-13271
▁गोला	-13272
▁सिल्	-13273
▁कलेजले	-13274
▁comment	-13275
▁प्रधानले	-13276
▁राजधानीका	-13277
संगीत	-13278
▁बिर्सि	-13279
▁ट्राभल	-13280
if	-13281
▁ख्या	-13282
▁नाइके	-13283
▁न्युजि	-13284
▁चैतमा	-13285
▁एक्सन	-13286
▁लगाउँदा	-13287
▁सरकारबीच	-13288
व्यस्त	-13289
▁कोहलपुर	-13290
हीको	-13291
▁वितरणमा	-13292
▁खुसीको	-13293
▁प्रख्यात	-13294
▁ग्रामिण	-13295
▁नपर्	-13296
▁वास्ता	-13297
▁सर्प	-13298
▁सेकेन्ड	-13299
▁अबस्थामा	-13300
▁प्रेमिका	-13301
▁एघार	-13302
▁ल्यापटप	-13303
तामाथि	-13304
▁अलावा	-13305
▁पूर्ति	-13306
▁सट	-13307
▁मिथिला	-13308
▁मन्त्रालयबाट	-13309
ः३०	-13310
▁तेलको	-13311
–‘	-13312
▁प्रजनन	-13313
▁सुकुम्बा	-13314
▁उग्र	-13315
य्या	-13316
▁कपको	-13317
▁डेलि	-13318
▁प्रिन्ट	-13319
▁भीषण	-13320
ाधिकार	-13321
ive	-13322
पाठी	-13323
▁गन्ध	-13324
▁जनसम्पर्क	-13325
मद	-13326
▁विमानमा	-13327
लागी	-13328
▁मिटरको	-13329
▁सभ्यता	-13330
▁खुवाउने	-13331
▁कान्छा	-13332
▁पुग्दैन	-13333
▁आन्दोलनकारी	-13334
▁बढाउनुपर्ने	-13335
view	-13336
▁कुश	-13337
रहेकै	-13338
▁खोले	-13339
▁डेरा	-13340
▁परित	-13341
मह	-13342
.201	-13343
▁चितुवा	-13344
▁लाइट	-13345
▁यसपछि	-13346
▁जसबाट	-13347
चौलिया	-13348
▁भियत	-13349
▁ध्रुव	-13350
▁ओसारपसार	-13351
ब्रे	-13352
▁पाएकी	-13353
▁कारागारमा	-13354
सेठ	-13355
▁कन्सर्ट	-13356
फले	-13357
▁स्ट्या	-13358
यका	-13359
jya	-13360
▁आल	-13361
▁रज	-13362
________	-13363
▁टहरा	-13364
▁सार्न	-13365
▁यात्री	-13366
क्रान्तिकारी	-13367
▁राष्ट	-13368
▁ढोरपाटन	-13369
देउ	-13370
▁शैले	-13371
ari	-13372
निन	-13373
स्दै	-13374
▁ललितपुरमा	-13375
▁मित	-13376
ीमाथि	-13377
▁शालिक	-13378
▁फेसबुकले	-13379
▁अस्पतालबाट	-13380
▁कपिल	-13381
▁बदली	-13382
▁प्रतिरोध	-13383
पीड	-13384
र्गा	-13385
▁स्थानका	-13386
▁परिषद्का	-13387
▁आइसोलेसनमा	-13388
▁उपभोक्ताले	-13389
▁स्टु	-13390
▁ओलीसँग	-13391
ँडो	-13392
▁दस्तुर	-13393
▁प्रमुखले	-13394
लार	-13395
▁अष्ट्रेलियाको	-13396
शांक	-13397
▁बुल	-13398
च्छिक	-13399
▁युके	-13400
▁हराएका	-13401
▁कटान	-13402
▁ब्लक	-13403
▁ठ्या	-13404
▁मनाउँदै	-13405
▁पढाउन	-13406
▁अस्थिरता	-13407
▁मानिसहरूको	-13408
नल	-13409
▁कालापानी	-13410
▁प्रयोगका	-13411
▁गर्नुपर्यो	-13412
उँदो	-13413
सिआर	-13414
▁छैठ	-13415
▁प्राणी	-13416
▁बहुदलीय	-13417
गोपाल	-13418
▁एपिएफ	-13419
▁गरिनुपर्ने	-13420
▁मनोबल	-13421
साँ	-13422
▁परमाणु	-13423
▁चारजना	-13424
▁मनमोहन	-13425
▁उपाधी	-13426
▁भनेकी	-13427
▁महिनामै	-13428
▁मुटुरोग	-13429
▁एडि	-13430
▁चढेको	-13431
▁हुनबाट	-13432
जेरिया	-13433
▁छाएको	-13434
▁स्वचालित	-13435
▁युवाहरुको	-13436
ith	-13437
▁साकार	-13438
▁विकासलाई	-13439
▁शिक्षकलाई	-13440
▁बिमान	-13441
▁प्रस्तावलाई	-13442
निय	-13443
lish	-13444
▁महाल	-13445
▁बहुमतको	-13446
▁मितिमा	-13447
▁शरीरका	-13448
▁उपभोक्ताको	-13449
▁पन	-13450
▁दशैंको	-13451
▁Saj	-13452
▁नुवाकोटको	-13453
तित	-13454
ipedia	-13455
▁ठाकुरले	-13456
▁कार्ट	-13457
▁शारदा	-13458
▁TV	-13459
▁मनु	-13460
▁पार्वती	-13461
▁आशावादी	-13462
▁लोकमार्ग	-13463
ँया	-13464
टिश	-13465
ङ्की	-13466
▁रामशरण	-13467
▁प्यान	-13468
▁वकालत	-13469
▁ढल्	-13470
▁जुलुस	-13471
▁प्रालिले	-13472
▁बद्	-13473
▁परेमा	-13474
▁सभासद्	-13475
▁स्वदेशमै	-13476
▁हाइड्रोपावर	-13477
▁महासेठ	-13478
adio	-13479
न्टिक	-13480
नुहुने	-13481
▁पुनको	-13482
▁दाब	-13483
▁डिस्चार्ज	-13484
▁सहमतिका	-13485
करणका	-13486
▁नम्र	-13487
▁केहीले	-13488
▁प्रतिक	-13489
▁बिम	-13490
▁दिइनेछ	-13491
▁शोध	-13492
वाकां	-13493
▁उद्घोष	-13494
▁रसा	-13495
डिएका	-13496
▁जनही	-13497
ालगायतका	-13498
▁समाजसेवा	-13499
▁गठबन्धनमा	-13500
षेक	-13501
राजले	-13502
▁मीठो	-13503
▁राजदूतावास	-13504
5)	-13505
▁read	-13506
▁तिलोत्तमा	-13507
भण्डारी	-13508
▁अभिनित	-13509
केन्द्रित	-13510
▁स्नान	-13511
▁डेनमार्क	-13512
▁बैङ्कको	-13513
ाउँछु	-13514
▁सेन्टरमा	-13515
▁छोराछो	-13516
र्जामन्त्री	-13517
▁सर्ज	-13518
▁कानुनले	-13519
▁महिलाहरुले	-13520
▁देवकोटाले	-13521
▁कोरियन	-13522
▁अर्थतन्त्रलाई	-13523
?’	-13524
▁St	-13525
▁हव	-13526
▁विमलेन्द्र	-13527
:0	-13528
▁इन्टरनेटमा	-13529
▁होस्ट	-13530
▁बहर	-13531
▁स्कोर	-13532
▁सहयोगले	-13533
▁काभ्रेपलाञ्चोक	-13534
विधी	-13535
ुवाँ	-13536
▁अस्वस्थ	-13537
▁लैङ्गिक	-13538
▁रुपमै	-13539
▁मिठा	-13540
▁कैयौँ	-13541
▁अचेल	-13542
▁टुङ्ग	-13543
त्कृष्ट	-13544
▁अपनाउनु	-13545
▁कास्कीको	-13546
▁प्रतिवेदनले	-13547
▁कक्षमा	-13548
▁निस्कि	-13549
्याएर	-13550
▁By	-13551
▁गराउँदा	-13552
▁थाल्ने	-13553
मिना	-13554
▁पोर्टलले	-13555
▁हल्	-13556
▁कारबाहीमा	-13557
▁दृष्टिकोणले	-13558
▁राजनीतिज्ञ	-13559
▁दिएन	-13560
ब्यू	-13561
▁बिघा	-13562
▁जनप्रतिनिधिले	-13563
ket	-13564
▁बाउ	-13565
▁छँदै	-13566
▁पर्ला	-13567
▁फाराम	-13568
च्छुक	-13569
▁बिल्	-13570
▁नियाम	-13571
▁कट्	-13572
क्रेट	-13573
▁विवादका	-13574
▁जोशीको	-13575
▁निर्मल	-13576
▁प्रतिष्ठानमा	-13577
▁आङ	-13578
▁तीनवटै	-13579
▁यूनि	-13580
▁सिक्का	-13581
▁सुस्ता	-13582
परिषद	-13583
AN	-13584
▁बखत	-13585
▁ताकि	-13586
▁बितिसक्दा	-13587
▁सचिवालयमा	-13588
▁मुसहर	-13589
▁चेपा	-13590
▁कुँवरले	-13591
▁क्रस	-13592
▁अरूले	-13593
▁अभियानले	-13594
▁प्राथमिकताका	-13595
▁(2	-13596
ेसनले	-13597
▁भुइँ	-13598
▁महाप्रबन्धक	-13599
▁चट्ट	-13600
........	-13601
ash	-13602
▁हड	-13603
हरुख	-13604
▁दिनलाई	-13605
▁स्वर्गीय	-13606
▁मलाइ	-13607
▁अयो	-13608
▁तिर्नु	-13609
▁दय	-13610
▁हितका	-13611
▁बलिदान	-13612
▁अनुदानमा	-13613
▁रिपोर्टर्स	-13614
डेरी	-13615
▁र्याली	-13616
▁बजारी	-13617
▁फोक्सो	-13618
▁नक्	-13619
तर्फबाट	-13620
▁बैङ्कले	-13621
ave	-13622
▁चन्दले	-13623
न्डी	-13624
म्यान	-13625
▁पढेको	-13626
:-	-13627
▁रहनेछन्	-13628
लमाथि	-13629
▁तिमल्	-13630
▁आफैमा	-13631
▁खरेलले	-13632
▁कीर्तिपुर	-13633
▁सुदुर	-13634
▁क्लबलाई	-13635
▁स्पोर्ट	-13636
▁सत्तापक्ष	-13637
▁उज्ज	-13638
▁एकाइ	-13639
▁हस्पिट	-13640
▁न्युरो	-13641
▁भद्रपुर	-13642
र्इं	-13643
थेँ	-13644
नीका	-13645
स्ते	-13646
▁सम्झि	-13647
▁भन्दैमा	-13648
▁भन्या	-13649
▁नपुगेको	-13650
▁क्षमा	-13651
▁चाँदी	-13652
▁अनुभवी	-13653
चिलो	-13654
▁एसएमएस	-13655
▁श्रमिकको	-13656
▁उपलक्ष्यमा	-13657
▁जहा	-13658
दित्य	-13659
▁साहु	-13660
▁भदौमा	-13661
अव	-13662
▁बलर	-13663
▁बच्चाहरु	-13664
डिज	-13665
▁पशुपालन	-13666
▁दबाबमा	-13667
▁मेष	-13668
▁केन्द्रीत	-13669
▁पत्रकारिताको	-13670
▁जबसम्म	-13671
▁नयाँद	-13672
▁अरेबिया	-13673
▁हिंसात्मक	-13674
▁श्रद्धाञ्जली	-13675
बाह	-13676
क्सले	-13677
▁मातह	-13678
▁आराधना	-13679
▁तत्कालका	-13680
▁मर्यादित	-13681
▁मलेसियाको	-13682
▁भिजन	-13683
नेश	-13684
▁ओर्	-13685
▁अङ्ग्रेजी	-13686
▁जनाउने	-13687
ष्णा	-13688
▁प्रदु	-13689
▁आफूहरू	-13690
▁विवादास्पद	-13691
▁आँग	-13692
द्वारी	-13693
▁फाइबर	-13694
▁कानूनको	-13695
ग्व	-13696
▁रोमाञ्च	-13697
सम्ब	-13698
▁घटनास्थलमा	-13699
▁असि	-13700
▁ऋतु	-13701
▁मनले	-13702
▁दर्जा	-13703
▁नमान्ने	-13704
▁न्यायका	-13705
▁सांसदलाई	-13706
php	-13707
पालीका	-13708
▁अँध्यारो	-13709
▁सिजनमा	-13710
त्ते	-13711
▁उस	-13712
▁तिव्र	-13713
▁गाउँमै	-13714
▁बिरामीले	-13715
पृष्ठ	-13716
▁अन्दा	-13717
▁मनसुन	-13718
▁अन्योलमा	-13719
▁रुम	-13720
▁तालिममा	-13721
▁विहि	-13722
ice	-13723
ञ्जि	-13724
▁मातृका	-13725
▁सफलतापूर्वक	-13726
दिशा	-13727
कालदेखि	-13728
▁मध्यरा	-13729
▁भेलाले	-13730
हानु	-13731
भूकम्प	-13732
▁सेटमा	-13733
▁पाठकले	-13734
▁फर्काउन	-13735
▁पुरुषोत्तम	-13736
▁खर	-13737
रह्यो	-13738
▁बेचबिखन	-13739
▁दर्शकलाई	-13740
▁रेणु	-13741
▁उनीमाथि	-13742
▁इको	-13743
▁किनेको	-13744
▁पन्ध्र	-13745
▁सघाउने	-13746
▁जिल्लालाई	-13747
▁कार्वा	-13748
▁त्यसबारे	-13749
▁निर्वाचनपछि	-13750
एउटा	-13751
▁अनुस	-13752
▁इटाली	-13753
▁एक्कासी	-13754
▁सोसाइटी	-13755
ue	-13756
jyaalo	-13757
▁रोकियो	-13758
▁मस्तिष्क	-13759
▁भावनात्मक	-13760
लाप	-13761
▁Pr	-13762
हरूमध्ये	-13763
▁उपन्या	-13764
▁चहलपहल	-13765
▁पुर्वा	-13766
▁मागलाई	-13767
▁वारेमा	-13768
▁०२	-13769
▁वनमा	-13770
▁यात्रुलाई	-13771
▁सहभागितामा	-13772
▁भाषी	-13773
▁भाँ	-13774
▁गर्नुअघि	-13775
▁बढेसँगै	-13776
aily	-13777
▁वना	-13778
▁अविजित	-13779
▁धर्मावलम्	-13780
दिक	-13781
र्योदय	-13782
जुन	-13783
▁मेरै	-13784
▁स्टे	-13785
▁२०६६	-13786
▁चरणका	-13787
▁अफ्रिकी	-13788
स्थितिमा	-13789
▁पर्यावरण	-13790
▁पोर्चुगल	-13791
▁उन्मुक्ति	-13792
रहन	-13793
▁घे	-13794
▁प्याज	-13795
पुस्तक	-13796
द्दी	-13797
▁अन्व	-13798
▁कोमल	-13799
▁Th	-13800
▁रुवा	-13801
▁आतङ्क	-13802
तारो	-13803
ुमा	-13804
ेसनको	-13805
▁कलंकी	-13806
▁आएकाले	-13807
▁ऐनले	-13808
▁बेरु	-13809
▁क्षतिको	-13810
्रमा	-13811
नक	-13812
कुट	-13813
▁सहकारीले	-13814
न्यू	-13815
▁तालिब	-13816
▁लिङ्ग	-13817
डिरहेका	-13818
▁प्रतिदिन	-13819
▁उतै	-13820
▁माफिया	-13821
▁कार्यन्व	-13822
▁मिनी	-13823
▁शिक्षामन्त्री	-13824
▁युवाहरू	-13825
▁चढा	-13826
▁साथीको	-13827
▁अनेरास्ववियु	-13828
वलको	-13829
▁सर्भिस	-13830
▁कतारको	-13831
▁गढ	-13832
▁यथावत	-13833
▁हातले	-13834
▁अभिनन्द	-13835
▁गाउपालिका	-13836
लम्	-13837
ंगै	-13838
जारा	-13839
न्युज	-13840
लिंगी	-13841
▁मुद्राको	-13842
अर्थ	-13843
ौलाको	-13844
▁बहाना	-13845
अन्तर्गतको	-13846
▁टाइम	-13847
दाँ	-13848
ठाउँमा	-13849
▁गीतलाई	-13850
▁राख्छन्	-13851
मलामा	-13852
▁एनआर	-13853
▁दही	-13854
▁जेठमा	-13855
▁वाचा	-13856
▁कामबाट	-13857
▁चलचित्रले	-13858
लागाई	-13859
▁एकादशी	-13860
▁जित्यो	-13861
▁मौला	-13862
▁सहमती	-13863
▁खनालको	-13864
ुको	-13865
▁परिव	-13866
▁प्रशं	-13867
▁चालकलाई	-13868
▁पौड्याल	-13869
▁झोलु	-13870
▁हैरान	-13871
▁लेखिएका	-13872
▁शान्तिको	-13873
▁फेवात	-13874
▁बस्नेतको	-13875
मन्द	-13876
▁नाइट	-13877
▁बनिसकेको	-13878
views	-13879
▁देशबीच	-13880
▁एकतालाई	-13881
चनले	-13882
नास	-13883
▁अघिदेखि	-13884
▁इन्स्टि	-13885
▁रहस्यमय	-13886
▁बन्नुहोस	-13887
▁विध	-13888
डम्बना	-13889
▁समुद्री	-13890
▁स्थापनाका	-13891
▁पच	-13892
▁आठौँ	-13893
आर्थिक	-13894
▁अपेक्षित	-13895
▁कोलका	-13896
▁भूकम्पपछि	-13897
▁लाखसम्म	-13898
▁डिन	-13899
▁एफएम	-13900
▁पुरुषलाई	-13901
▁बस्नुपर्ने	-13902
▁ओछ	-13903
तोला	-13904
▁नपाएपछि	-13905
▁कलाकारले	-13906
६०	-13907
▁ह्वाइट	-13908
▁बासिन्दाले	-13909
▁धक	-13910
मधेस	-13911
फाइनलमा	-13912
▁सोच्ने	-13913
▁हुर्का	-13914
▁वर्षमान	-13915
▁श्रीमानको	-13916
▁लाग्दो	-13917
▁कुटनीतिक	-13918
▁पाठकको	-13919
▁ब्लड	-13920
परे	-13921
▁०३	-13922
र्नी	-13923
▁शुन्य	-13924
ून्	-13925
भाषित	-13926
▁चाहनु	-13927
▁यहाँबाट	-13928
▁चढ्ने	-13929
लीलाई	-13930
▁आन्दोलनले	-13931
▁मनपर्ने	-13932
▁सुलभ	-13933
▁गरेकाे	-13934
▁पुराता	-13935
▁आयोजनालाई	-13936
▁लामिछानेको	-13937
▁अन्स	-13938
▁मञ्जु	-13939
▁लिगा	-13940
▁२०४८	-13941
होरेको	-13942
▁आईपीओ	-13943
▁कतिले	-13944
▁पुनस्	-13945
▁निकायबाट	-13946
▁नपरेको	-13947
र्ते	-13948
▁बेरोजगारी	-13949
▁धामी	-13950
▁बर्ग	-13951
नीयता	-13952
▁भन्द	-13953
खोलामा	-13954
▁भण्डारीलाई	-13955
▁नेगेटिभ	-13956
ेजले	-13957
▁महालक्ष्मी	-13958
▁प्रतिनिधिसभाका	-13959
▁ताना	-13960
▁इंग्ल्याण्ड	-13961
▁राजाले	-13962
दुरी	-13963
▁बेहु	-13964
▁कोरोनाबाट	-13965
ष्टर	-13966
▁संस्थाबाट	-13967
▁भातृ	-13968
▁धानको	-13969
▁हिँडेका	-13970
▁बिजेता	-13971
यमान	-13972
▁सिके	-13973
▁अपांगता	-13974
▁च्यान	-13975
▁Radio	-13976
▁केयर	-13977
▁डिजाइ	-13978
▁रगतको	-13979
▁पर्वतको	-13980
▁कार्यक्रमहरू	-13981
बर्ष	-13982
▁त्यसबाहेक	-13983
दक	-13984
यानक	-13985
द्देश्य	-13986
▁बाबजुद	-13987
र्मिला	-13988
▁सन्तोषजनक	-13989
एपनि	-13990
▁बुझ्दै	-13991
▁म्यान्	-13992
▁आन्दोलित	-13993
▁नदेखिएको	-13994
▁अग्रणी	-13995
▁नेम्वाङ	-13996
▁न्युनतम	-13997
▁पाइन	-13998
▁बझाङ	-13999
▁आदेशमा	-14000
▁आशिष	-14001
▁पठाएर	-14002
?'	-14003
▁दातृ	-14004
▁वर्षमै	-14005
▁हङकङमा	-14006
▁राष्ट्रवादी	-14007
▁यार्सा	-14008
▁फ्रान्समा	-14009
▁ओपनर	-14010
▁चार्ट	-14011
▁ब्यु	-14012
▁भनेँ	-14013
ूत	-14014
▁26	-14015
फुट	-14016
orld	-14017
▁प्रताप	-14018
▁होमस्टे	-14019
हेर्नुहोस	-14020
प्रे	-14021
वृद्धा	-14022
▁अघिल्ला	-14023
ह्या	-14024
▁झुक	-14025
▁सान्	-14026
▁आकारको	-14027
▁जमीन	-14028
▁साट	-14029
▁नलिने	-14030
▁छापामा	-14031
▁दिवसीय	-14032
▁जोडे	-14033
▁हावी	-14034
ial	-14035
▁एउटी	-14036
▁मधेसको	-14037
▁राजदुत	-14038
▁पेस्तो	-14039
▁कुखुराको	-14040
▁च्याप्टर	-14041
▁मुद्दालाई	-14042
▁अर्जेन्टिना	-14043
▁शहरको	-14044
▁गोपनीयताको	-14045
विनायक	-14046
▁बिहानको	-14047
▁कार्यवाहक	-14048
ks	-14049
रात्मक	-14050
प्स	-14051
▁आत्माको	-14052
▁नट	-14053
्रास	-14054
oldid	-14055
▁ङ	-14056
▁बस्छन्	-14057
▁दलहरुको	-14058
ेसो	-14059
▁राष्ट्रसंघको	-14060
▁विम	-14061
▁गतेका	-14062
▁निष्ठा	-14063
▁Everest	-14064
▁फोनको	-14065
▁सच्याउन	-14066
▁विद्यार्थीहरुले	-14067
दोहो	-14068
▁पुतली	-14069
▁बताउन	-14070
▁यौनसम्पर्क	-14071
९९	-14072
▁सीसी	-14073
▁बन्दको	-14074
▁साउनमा	-14075
राग	-14076
▁अधिग्रहण	-14077
▁जाल	-14078
▁पौने	-14079
▁हुलाकी	-14080
चोकमा	-14081
▁हेरी	-14082
▁विषयका	-14083
▁परोप	-14084
▁बदनाम	-14085
▁कालोबजारी	-14086
खुट्	-14087
▁मदत	-14088
णिक	-14089
शले	-14090
▁pro	-14091
पाई	-14092
वाणी	-14093
▁उभिएर	-14094
▁राष्ट्रपतिलाई	-14095
▁मनी	-14096
▁साहस	-14097
▁व्यब	-14098
यन्त्रित	-14099
▁पुग्छन्	-14100
▁प्रक्रियाको	-14101
▁मर्न	-14102
▁दिँदैन	-14103
▁त्रिवेणी	-14104
▁पश्चिमाञ्चल	-14105
ero	-14106
दौ	-14107
▁साइड	-14108
▁हावाहु	-14109
▁क्व	-14110
▁जसपा	-14111
▁सीधा	-14112
▁कस्	-14113
▁एकिकृत	-14114
▁लम्बाइ	-14115
बानेश्वर	-14116
▁Ratopati	-14117
▁ठि	-14118
चनमा	-14119
▁¥	-14120
ंग्य	-14121
▁माछापुच्छ	-14122
▁पूर्वअध्यक्ष	-14123
▁ब्यवसाय	-14124
▁रजिष्ट्र	-14125
▁कुराकानीमा	-14126
▁सानिमा	-14127
ेदन	-14128
▁अल्झ	-14129
▁सर्ब	-14130
▁परियोजनामा	-14131
टरी	-14132
▁टेन्डर	-14133
▁पौडी	-14134
▁कास्कीका	-14135
म्मर	-14136
▁सेवास	-14137
wikipedia	-14138
हेर्नुहोस्	-14139
▁छँदा	-14140
▁पृथ्वीको	-14141
चिब	-14142
▁संव	-14143
▁भयानक	-14144
▁अनलाइनमा	-14145
▁चट	-14146
▁इँटा	-14147
▁अवस्थाबारे	-14148
▁$	-14149
▁२०००	-14150
▁त्यहा	-14151
▁निशान	-14152
▁एएफसी	-14153
▁दुवैलाई	-14154
साउन	-14155
▁छिटै	-14156
▁छरिएर	-14157
▁कार्यका	-14158
▁तपाईंका	-14159
▁बोर्डमा	-14160
▁अस्तव्यस्त	-14161
▁प्रत्याभूति	-14162
▁मनाई	-14163
▁गरियोस्	-14164
▁पोर्न	-14165
फोर्ड	-14166
फोनमा	-14167
▁ब्रे	-14168
▁Sp	-14169
▁राईलाई	-14170
▁नेपालीका	-14171
▁समुन्द्र	-14172
▁पड्	-14173
▁दिवसमा	-14174
▁शतप्रतिशत	-14175
खाल	-14176
स्पर	-14177
▁भेट्	-14178
एनआरएन	-14179
▁भजन	-14180
पुर्जा	-14181
रहनुभएको	-14182
▁रुघाखोकी	-14183
▁एक्स्पो	-14184
▁आयर	-14185
▁तथ्यांकअनुसार	-14186
75	-14187
डबडी	-14188
▁नरम	-14189
मिडिया	-14190
▁Ujyaalo	-14191
▁पीडितले	-14192
▁जुनियर	-14193
▁हाँसो	-14194
▁काँधमा	-14195
▁दक्षता	-14196
▁असुली	-14197
घरको	-14198
▁कान्छी	-14199
▁फिल्मलाई	-14200
▁विन्दुमा	-14201
▁टेक्नोलोजी	-14202
▁28	-14203
▁बाटा	-14204
▁नेत्रविक्रम	-14205
▁शिक्षालाई	-14206
०७६	-14207
▁सोमबारदेखि	-14208
▁चालि	-14209
सेल	-14210
र्वाद	-14211
▁वर्षकै	-14212
▁गर्नेहरु	-14213
▁छुट्याइएको	-14214
धो	-14215
▁बज्राचार्य	-14216
▁केर	-14217
▁भरी	-14218
▁मेरि	-14219
▁कमर्स	-14220
▁जानेको	-14221
▁ठाउँका	-14222
▁राजभण्डारी	-14223
▁भएछ	-14224
▁अफिसियल	-14225
▁समकक्षी	-14226
▁सन्तुष्टि	-14227
▁गैंडा	-14228
▁NEWS	-14229
▁इजि	-14230
▁पाखा	-14231
▁रहेकोछ	-14232
▁योगदानको	-14233
▁अन्तर्गतका	-14234
▁नामि	-14235
▁आफूहरुको	-14236
चोटि	-14237
▁जोहो	-14238
▁बोग	-14239
▁विस	-14240
▁क्रिस्ट	-14241
▁उल्लिखित	-14242
▁बिनि	-14243
▁आक्रमणको	-14244
ततै	-14245
समय	-14246
▁हिंसाका	-14247
▁०४	-14248
पीआर	-14249
▁दिक्त	-14250
▁मामला	-14251
▁दार्जि	-14252
▁त्यसयता	-14253
▁सुपरि	-14254
▁क्याना	-14255
▁उपभोक्तालाई	-14256
▁बलिउडका	-14257
▁स्वदेशमा	-14258
▁गृहमन्त्रालय	-14259
▁प्यू	-14260
▁अंकित	-14261
▁पोख्रेल	-14262
▁ठगि	-14263
▁गाउन	-14264
▁खोलेको	-14265
▁इजलासमा	-14266
▁सुल्	-14267
▁बिक्रम	-14268
▁सभालाई	-14269
ech	-14270
त्ने	-14271
▁तलको	-14272
▁बजारका	-14273
▁तारिखमा	-14274
▁विनाशकारी	-14275
▁कपुर	-14276
▁शिक्षित	-14277
ैंचा	-14278
▁बेथ	-14279
▁फोरमका	-14280
्यास्त्र	-14281
▁गिरिजाप्रसाद	-14282
▁मग	-14283
ज्यो	-14284
▁acc	-14285
▁सिप	-14286
▁कञ्चनपुरमा	-14287
▁डिल	-14288
▁वृह	-14289
▁क्यारे	-14290
▁परित्याग	-14291
भमा	-14292
▁कोह	-14293
▁द्वितीय	-14294
▁कयौं	-14295
▁खस्दा	-14296
नं	-14297
वासीको	-14298
्रान्त	-14299
▁एटिएम	-14300
▁प्रसूति	-14301
▁कम्पनीहरुले	-14302
▁बताउँछ	-14303
▁सहभागीता	-14304
लिएका	-14305
▁March	-14306
▁मञ्चमा	-14307
प्टेन	-14308
▁गुमाउनु	-14309
▁लोकप्रियता	-14310
▁मिनेटमै	-14311
▁कलाकारहरु	-14312
▁लघुवित्तको	-14313
▁हालत	-14314
▁साइटमा	-14315
ड्र	-14316
▁घोषणापत्रमा	-14317
टेक	-14318
▁माहोल	-14319
▁वृक्ष	-14320
▁सामसु	-14321
▁शृंखला	-14322
▁उद्योगका	-14323
Khabar	-14324
▁कोर्स	-14325
▁ड्रेस	-14326
▁लेखमा	-14327
▁प्रतितोला	-14328
किशोर	-14329
टाइएको	-14330
▁अक्षय	-14331
▁क्षेप	-14332
▁गएँ	-14333
▁जंगली	-14334
जुक	-14335
▁जिन	-14336
▁आयामका	-14337
▁चलाएर	-14338
▁सेक्य	-14339
▁छाडेका	-14340
▁परिपक्व	-14341
▁१०१	-14342
▁डोजर	-14343
▁माडी	-14344
न्दिरा	-14345
भियत	-14346
▁रामा	-14347
▁अगष्ट	-14348
▁हिँडेको	-14349
हुने	-14350
▁डोर	-14351
▁सांसद्	-14352
▁शुद्धीकरण	-14353
चढा	-14354
AR	-14355
ेशी	-14356
▁अनुकुल	-14357
▁उपचाररत	-14358
▁हारेर	-14359
▁बोलाउने	-14360
▁कारवाहीको	-14361
▁प्रिन्	-14362
▁विश्वयुद्ध	-14363
▁हेर्नुहोला	-14364
▁छक्क	-14365
▁गर्नेगरी	-14366
▁दाहाललाई	-14367
▁गाउने	-14368
▁उन्नति	-14369
▁संस्थाहरुले	-14370
▁मुल्या	-14371
पसमा	-14372
▁सकिनँ	-14373
▁रोकेको	-14374
▁क्रिकेटर	-14375
लाख	-14376
▁शिख	-14377
▁कक्षाको	-14378
▁धादिङको	-14379
▁पाण्डेको	-14380
▁समित	-14381
▁खानाको	-14382
▁मुलुककै	-14383
▁सचिवालयका	-14384
▁निरुत्साहित	-14385
▁म्यानेजर	-14386
सरो	-14387
▁माझी	-14388
▁सोध्न	-14389
ूमा	-14390
▁टुरि	-14391
▁महत्वको	-14392
▁हिसावले	-14393
यकोष	-14394
▁तिमीहरू	-14395
पाली	-14396
ञ्चाल	-14397
▁समाचारपत्र	-14398
▁प्यारो	-14399
▁विधेयकको	-14400
▁१९९०	-14401
▁ल्याब	-14402
▁मौसमी	-14403
7)	-14404
▁हँ	-14405
▁वाग्ले	-14406
▁फैलाउने	-14407
▁क्रियाकलापमा	-14408
चेको	-14409
▁अत्त	-14410
ज्व	-14411
▁विवादको	-14412
▁सुन्दरता	-14413
▁Enter	-14414
यदि	-14415
पुरुष	-14416
▁आषाढ	-14417
▁टेबल	-14418
▁दिइसकेको	-14419
संसद्	-14420
▁विजु	-14421
दिन्छु	-14422
▁जन्मिएको	-14423
▁बलात्कारी	-14424
गत्तै	-14425
▁दिवा	-14426
▁जस्तोसुकै	-14427
▁मस	-14428
▁सीके	-14429
▁आफैंमा	-14430
▁हिंसाको	-14431
▁बनिरहेको	-14432
▁प्रकाशमान	-14433
▁क्षेप्यास्त्र	-14434
▁व्	-14435
▁दिलाए	-14436
वेदना	-14437
▁चाहानु	-14438
▁दुबईमा	-14439
▁त्यत्तिकै	-14440
▁मृतकका	-14441
▁प्रतिकिलो	-14442
▁सुनी	-14443
▁दुव्र्यवहार	-14444
▁शुभचिन्त	-14445
दिम	-14446
▁खल्	-14447
▁एप्स	-14448
▁गायब	-14449
▁यसर्थ	-14450
▁ओबा	-14451
र्थीको	-14452
▁बुर्ति	-14453
▁गाउँग	-14454
▁जतिसुकै	-14455
▁गजेन्द्र	-14456
▁उपज	-14457
▁पतन	-14458
▁वर्क	-14459
टम	-14460
एक्	-14461
प्चामा	-14462
श्मी	-14463
▁यूरोप	-14464
▁चट्याङ	-14465
▁लगाएपछि	-14466
▁चाहन्छौं	-14467
▁सामाग्रीहरु	-14468
▁एटी	-14469
▁टुर	-14470
▁हट्	-14471
▁निर्या	-14472
▁कम्प्ले	-14473
▁कार्यशाला	-14474
▁रोनाल्डोले	-14475
▁प्यु	-14476
▁बचाउने	-14477
▁विकासमन्त्री	-14478
क्सिङ	-14479
▁दिउसो	-14480
▁रोकेर	-14481
▁अन्धकार	-14482
▁एकताबद्ध	-14483
दूत	-14484
▁तम	-14485
ेसनमा	-14486
▁भयावह	-14487
ौलो	-14488
▁त्रिशूली	-14489
▁खिच्ने	-14490
▁तामाकोशी	-14491
▁कर्मचारीहरुको	-14492
ung	-14493
▁जिम	-14494
▁नेतामा	-14495
▁आइतबारदेखि	-14496
मेण्ट	-14497
▁तत्पर	-14498
▁अयोग्य	-14499
तत्व	-14500
▁मेडल	-14501
▁views	-14502
▁अपलोड	-14503
▁सप्ताह	-14504
▁बाहिरिने	-14505
▁स्वस्थ्य	-14506
▁उत्साहजनक	-14507
▁अफगानिस्तानको	-14508
▁भड्	-14509
▁उपलव्ध	-14510
tion	-14511
▁खेल्दा	-14512
▁अधिकारीका	-14513
▁केन्द्रलाई	-14514
No	-14515
एचओ	-14516
▁ग्ला	-14517
▁सञ्चारमन्त्री	-14518
▁बढीले	-14519
▁बास्को	-14520
▁ज्ञानको	-14521
▁साथीहरुले	-14522
▁आयक	-14523
▁अर्डर	-14524
▁किनार	-14525
▁निकाल्	-14526
▁सर्ट	-14527
▁चमत्कार	-14528
▁कार्यहरू	-14529
▁परिमाणमा	-14530
▁श्रीमतीलाई	-14531
र्र	-14532
▁डेंगु	-14533
▁इलामको	-14534
▁प्रदर्शनको	-14535
▁जताततै	-14536
▁शिशुको	-14537
▁ल्याउनुपर्ने	-14538
▁स्याहार	-14539
ord	-14540
amro	-14541
स्केट	-14542
▁विश्	-14543
▁खण्डन	-14544
क्षेत्रमा	-14545
वासीले	-14546
▁चाम्	-14547
▁सोच्	-14548
▁टुँडि	-14549
▁पाइनेछ	-14550
▁रोपाइँ	-14551
▁लगानीकर्ताको	-14552
▁स्मृ	-14553
▁खुट्टामा	-14554
rak	-14555
थोक	-14556
▁(0	-14557
▁इभेन्ट	-14558
▁मोवाइल	-14559
लैया	-14560
▁नीजि	-14561
▁वापत	-14562
▁सुगर	-14563
▁उल्लङ्	-14564
▁विषयले	-14565
▁दीपकराज	-14566
न्ते	-14567
▁दाई	-14568
▁शिर	-14569
▁बच्ने	-14570
▁गएकाले	-14571
▁भृकुटी	-14572
▁पारदर्श	-14573
▁कर्णालीमा	-14574
▁मेट्रो	-14575
▁बिहिवार	-14576
▁प्रतिलिटर	-14577
▁मास्टर	-14578
▁तिहारमा	-14579
▁फ्याक्स	-14580
▁पका	-14581
▁सोमपाल	-14582
▁सुकै	-14583
▁अभिभावकले	-14584
▁//	-14585
▁डीएसपी	-14586
▁अल्पसंख्यक	-14587
▁अपुग	-14588
▁गरिदिए	-14589
▁म्यासेज	-14590
▁इन्धनको	-14591
पढ	-14592
गर्	-14593
▁तरंग	-14594
▁सिटमा	-14595
▁गर्नेमा	-14596
▁नियन्त्रणको	-14597
▁गाइड	-14598
▁हवाइ	-14599
▁बाँझो	-14600
पेन्द्र	-14601
▁रुसले	-14602
▁इन्भेष्ट	-14603
ानीको	-14604
▁वितर	-14605
▁चीनलाई	-14606
▁ब्राह्	-14607
▁प्रोसेस	-14608
ाउँदो	-14609
▁लाखमा	-14610
▁जापानले	-14611
▁कर्पोरेट	-14612
▁सेके	-14613
सूचीमा	-14614
▁कार्यक	-14615
▁वितरणको	-14616
▁जागर	-14617
▁त्यतिखेर	-14618
▁कार्यालयहरु	-14619
▁बर्त	-14620
टिङमा	-14621
संस्कार	-14622
▁चेम्बर	-14623
▁सान	-14624
▁छोराले	-14625
नजिक	-14626
▁रमण	-14627
टर्स	-14628
▁घटनाहरु	-14629
▁for	-14630
▁दुःखी	-14631
▁नेसनल	-14632
▁अविश्वासको	-14633
▁कामदारले	-14634
▁ठ्याक्कै	-14635
▁विजेताले	-14636
▁चिनिन्छ	-14637
▁कोटेश्वर	-14638
▁अनियन्त्रित	-14639
▁मस्को	-14640
▁मतपरिणाम	-14641
ष्म	-14642
▁आश्रित	-14643
ण्डल	-14644
▁जफत	-14645
▁सेभ	-14646
हरुबीच	-14647
▁तहसम्म	-14648
▁अन्सारी	-14649
चिन	-14650
▁st	-14651
र्तिक	-14652
▁ईन्टर	-14653
प्रतिष्ठ	-14654
▁रिचार्ज	-14655
ee	-14656
भत्ता	-14657
▁pm	-14658
र्जिन	-14659
▁नविन	-14660
igital	-14661
▁पुण्य	-14662
▁पश्चिममा	-14663
▁माइक्रोफाइ	-14664
भए	-14665
▁मनसाय	-14666
▁चाहन्थे	-14667
▁पेस्तोल	-14668
▁मनोवैज्ञानिक	-14669
▁विश्वकर्माले	-14670
▁बुझि	-14671
▁व्यास	-14672
▁अर्कालाई	-14673
▁सदस्यहरुलाई	-14674
▁आदित्य	-14675
▁स्तरका	-14676
▁निरपेक्ष	-14677
बढ	-14678
▁धित	-14679
एन्	-14680
▁बेरुजु	-14681
▁जनमुक्ति	-14682
सम्मान	-14683
▁कामहरू	-14684
▁निकटतम	-14685
Tags	-14686
क्यौता	-14687
▁आत्मघाती	-14688
▁पाकिस्तानमा	-14689
▁तलव	-14690
▁अनुमानित	-14691
ीम	-14692
▁बेहोस	-14693
▁फ्रान्सेली	-14694
लिका	-14695
▁शुभे	-14696
▁माघमा	-14697
▁बिदेशी	-14698
▁रूपन्देही	-14699
▁पप	-14700
▁परिभाषित	-14701
▁तालाबन्दी	-14702
▁शतक	-14703
निएको	-14704
▁पिउन	-14705
▁डुङ्गा	-14706
▁लेखकले	-14707
▁हेमन्त	-14708
▁ब्रिटिश	-14709
स्टाग्राम	-14710
▁तोक्न	-14711
▁मिल्न	-14712
▁सर्जक	-14713
▁परिक्रमा	-14714
बारा	-14715
▁पिसिआर	-14716
▁गदै	-14717
शालाको	-14718
▁छोडेको	-14719
▁हुनुमा	-14720
▁आइस	-14721
▁दौरान	-14722
▁गर्नेछौं	-14723
बीमा	-14724
▁अंग्रेजीमा	-14725
▁भ्यान	-14726
▁शमशेर	-14727
ग्लाइ	-14728
▁खेप्	-14729
▁मूख्य	-14730
▁भनेजस्तो	-14731
▁अख्तियारको	-14732
पूर	-14733
कृती	-14734
▁शशांक	-14735
▁मानन्धर	-14736
▁क्यान्सरको	-14737
▁पान	-14738
▁इंग्ल्यान्ड	-14739
करणमा	-14740
▁एजुक	-14741
▁बिहार	-14742
▁समर्पण	-14743
▁हामीकहाँ	-14744
▁नेतृत्वलाई	-14745
▁बुद्धिजीवी	-14746
▁व्यापारीले	-14747
▁संरक्षणको	-14748
▁विद्यार्थीहरुको	-14749
डमि	-14750
▁आजी	-14751
▁दुर्इ	-14752
▁बिज्ञान	-14753
▁Entertainment	-14754
▁नमः	-14755
achar	-14756
▁जोडीले	-14757
▁धरानमा	-14758
▁ल्याइने	-14759
▁मानिसहरुलाई	-14760
▁लगानीकर्तालाई	-14761
लाङ	-14762
▁ज्वाला	-14763
▁बाबुको	-14764
▁आमरण	-14765
▁प्रयोगकर्ताले	-14766
▁केहीबेर	-14767
▁स्क्रिन	-14768
▁साक्षरता	-14769
▁रित्	-14770
▁अङ्कले	-14771
संस्कृति	-14772
az	-14773
▁मुग्लिन	-14774
▁मूल्यको	-14775
▁डब्	-14776
पोष्ट	-14777
णले	-14778
▁मोबाई	-14779
▁शेरधन	-14780
▁आगलागीबाट	-14781
▁कल्याणकारी	-14782
धनीले	-14783
▁जीवन्त	-14784
▁केस	-14785
▁खेम	-14786
परीक्षण	-14787
▁हुनुभन्दा	-14788
▁अमिता	-14789
▁बिहानैदेखि	-14790
▁पाना	-14791
▁व्यवसायलाई	-14792
▁एकजनाको	-14793
▁भूकम्पका	-14794
अघिका	-14795
▁पुलिसले	-14796
▁27	-14797
टेल	-14798
भिङ	-14799
ैपर्ने	-14800
▁आरोपित	-14801
▁पृष्ठमा	-14802
▁स्वीकार्य	-14803
▁खोजेर	-14804
▁हारेको	-14805
▁बढिरहेका	-14806
▁तटबन्ध	-14807
▁शित	-14808
▁परिपत्र	-14809
▁धन्यबाद	-14810
▁आयोजनाबाट	-14811
▁भिडियोलाई	-14812
▁बंगलादेशको	-14813
ple	-14814
▁युवतीलाई	-14815
▁विन	-14816
▁Image	-14817
▁सुन्नु	-14818
▁गुरुङलाई	-14819
▁गोरखापत्र	-14820
▁लखन	-14821
▁कम्पनीहरु	-14822
▁रुपैयाँले	-14823
▁अन्तत	-14824
▁नपरोस्	-14825
▁होटलको	-14826
▁छुने	-14827
▁जोखिमपूर्ण	-14828
▁प्रतिरक्षा	-14829
▁मत्	-14830
▁जाहेर	-14831
▁विदुर	-14832
▁सुर्खेतमा	-14833
पीले	-14834
▁खप्त	-14835
मसोम	-14836
▁कलि	-14837
▁लिपि	-14838
▁एकतामा	-14839
▁हुनुअघि	-14840
▁टेलिभिजनमा	-14841
▁तले	-14842
▁अठोट	-14843
भिट्टा	-14844
किया	-14845
▁सहजता	-14846
▁पदाधिकारीको	-14847
▁उछि	-14848
▁नबिल	-14849
▁हुनका	-14850
▁तान्ने	-14851
▁जितेन्द्र	-14852
▁तम्	-14853
▁ट्वा	-14854
▁ईलाका	-14855
▁क्यार	-14856
▁महाभारत	-14857
▁मतदातालाई	-14858
खार	-14859
▁सहयो	-14860
yan	-14861
▁पिडा	-14862
▁एप्पल	-14863
निरपेक्ष	-14864
▁ल्याउँदै	-14865
चमा	-14866
▁विरुवा	-14867
▁कलाकारहरुको	-14868
पती	-14869
▁पहुँचमा	-14870
▁वृद्धवृद्धा	-14871
यरि	-14872
टिक्स	-14873
▁नरहने	-14874
▁क्षयरोग	-14875
▁तेह्रथुम	-14876
▁ad	-14877
▁भेरिय	-14878
ँध	-14879
▁परेकाले	-14880
फोटक	-14881
बलको	-14882
antra	-14883
▁२०५८	-14884
......	-14885
▁सामानको	-14886
▁वीरेन्द्रनगर	-14887
नीत	-14888
▁पोजि	-14889
▁बुलेट	-14890
▁सोडारी	-14891
▁मतदाताको	-14892
विकास	-14893
▁हड्डी	-14894
▁आवाजमा	-14895
▁पाईन्छ	-14896
▁युवतीले	-14897
तय	-14898
▁माउन्ट	-14899
▁देखाउनु	-14900
▁विकासले	-14901
▁सेक्युरि	-14902
९७७	-14903
▁विपद	-14904
काउन्टर	-14905
▁इकान्ति	-14906
▁अध्यक्षका	-14907
▁गुनासा	-14908
▁लेख्दै	-14909
▁च्यालेन्ज	-14910
▁फू	-14911
▁९८५	-14912
▁परमा	-14913
▁सिध्या	-14914
▁बाँकेको	-14915
▁बाधक	-14916
▁नीतिले	-14917
▁पत्रकारले	-14918
धर्म	-14919
▁द्र	-14920
▁पेय	-14921
▁चौडा	-14922
▁ओलीका	-14923
▁रुसमा	-14924
▁सडकबाट	-14925
▁प्रदेशबाट	-14926
▁सर्वोत्कृष्ट	-14927
साथी	-14928
राउने	-14929
▁सकिदैन	-14930
▁कृषकलाई	-14931
▁श्रीमानले	-14932
▁j	-14933
hak	-14934
▁बोझ	-14935
IN	-14936
मिरेट	-14937
▁करदाता	-14938
▁गर्नुभन्दा	-14939
▁१२०	-14940
▁जनगणना	-14941
लासी	-14942
▁नियामक	-14943
▁सभापतिमा	-14944
▁कार्यपत्र	-14945
यताको	-14946
▁मधेशमा	-14947
एकाे	-14948
▁गुमाए	-14949
▁अनुपस्थित	-14950
▁वाक	-14951
▁नपुग्दै	-14952
▁बञ्चित	-14953
▁सहितका	-14954
थिका	-14955
▁अखबार	-14956
▁बायाँ	-14957
▁सङ्घको	-14958
▁नजिकिँदै	-14959
▁पृथ्वीमा	-14960
▁अनुसन्धानले	-14961
▁कमिटीमा	-14962
▁कांग्रेसबाट	-14963
▁सुशीला	-14964
▁तनहुँको	-14965
▁ढाड	-14966
▁हुनेछैन	-14967
▁बगाएको	-14968
▁कालिकोट	-14969
▁आवरण	-14970
▁खनिज	-14971
▁बर्षे	-14972
▁सर्वप्रथम	-14973
▁सकस	-14974
न्दामा	-14975
▁बग्ने	-14976
▁कुश्मा	-14977
▁क्षमताका	-14978
▁कार्यशैली	-14979
बैंक	-14980
▁नगरसभा	-14981
ँको	-14982
लेस	-14983
▁नेट	-14984
▁फ्री	-14985
▁साम्य	-14986
▁म्याराथ	-14987
हरुसंग	-14988
▁अपी	-14989
▁अमित	-14990
▁अभिषेक	-14991
फको	-14992
▁हेरे	-14993
हाल्यो	-14994
▁आफन्तको	-14995
▁फर्निचर	-14996
▁संगीतमा	-14997
▁जोडिने	-14998
▁व्यक्तिहरुलाई	-14999
▁मुनि	-15000
▁अव्यवस्थित	-15001
▁केन्द्रबीच	-15002
प्रि	-15003
▁विनय	-15004
▁साँघुरो	-15005
▁काग्रेस	-15006
▁राष्ट्रले	-15007
▁दाख	-15008
▁विषेश	-15009
▁गोल्डेन	-15010
▁फ्रान्सको	-15011
▁अप्रत्यक्ष	-15012
▁षड	-15013
मानमा	-15014
▁नर्भिक	-15015
▁शाहरुख	-15016
▁min	-15017
▁तिलक	-15018
▁सातदो	-15019
▁भाषाका	-15020
▁हत्याकाण्ड	-15021
▁मोती	-15022
▁बद्री	-15023
▁चलाउनु	-15024
▁अनुगमनका	-15025
▁सोमबारको	-15026
सीन	-15027
▁बगै	-15028
▁कुमा	-15029
▁पुर्पक्ष	-15030
राजको	-15031
▁गरिरहँदा	-15032
गे	-15033
▁करियर	-15034
▁जितमा	-15035
▁मेस्सी	-15036
▁सुनसान	-15037
▁स्वामित्वमा	-15038
खुसी	-15039
▁वयस्क	-15040
▁रोबोट	-15041
▁हार्ड	-15042
▁विश्वमै	-15043
▁मेलम्चीको	-15044
▁खसेर	-15045
▁विहार	-15046
▁शीघ्र	-15047
▁रानाले	-15048
▁व्यवसायीहरुले	-15049
देवीको	-15050
▁तवरले	-15051
▁निरंक	-15052
▁पाँचवटा	-15053
▁पुर्याउनु	-15054
▁भट्टराईलाई	-15055
▁मन्त्रिपरिषद्ले	-15056
▁मोटरसाई	-15057
▁PM	-15058
रिका	-15059
▁छनोटको	-15060
▁बाँच्ने	-15061
▁व्याप्त	-15062
▁भ्याक्सिन	-15063
▁०७५	-15064
▁जोङ	-15065
भियोग	-15066
▁पपु	-15067
▁ढिलासु	-15068
▁सचिवको	-15069
▁चलाउँदा	-15070
▁माओवादीलाई	-15071
शहर	-15072
▁क्रियाशिल	-15073
▁एकाउन्ट	-15074
▁आभार	-15075
▁२०३०	-15076
विकोपा	-15077
▁निन्दा	-15078
▁प्रणालीबाट	-15079
▁हजारसम्म	-15080
▁चलचित्रलाई	-15081
▁ढंगबाट	-15082
▁गणतन्त्रको	-15083
▁रमाई	-15084
▁अनुरूप	-15085
▁पार्टनर	-15086
पाट	-15087
▁दिएनन्	-15088
….	-15089
▁गरोस्	-15090
▁म्यादी	-15091
▁उप्रेतीले	-15092
▁मानबहादुर	-15093
ober	-15094
▁सेरो	-15095
▁अवसरको	-15096
नुस्	-15097
▁बिन्दुमा	-15098
▁20,	-15099
▁स्थगन	-15100
▁सोभियत	-15101
▁हले	-15102
ाउन्ड	-15103
▁समाति	-15104
▁ल्याउँछ	-15105
▁दिनुहोला	-15106
▁सूर्योदय	-15107
केस	-15108
▁रोगले	-15109
▁सोलार	-15110
▁विषाक्त	-15111
ड़	-15112
▁इकाइ	-15113
▁आज्ञ	-15114
▁बजारबाट	-15115
▁सुरुङमार्ग	-15116
शनको	-15117
▁खुशीको	-15118
▁कन्स्ट्र	-15119
▁अत	-15120
▁खटिने	-15121
▁बलात्कृत	-15122
▁गौतमबुद्ध	-15123
▁देखिन्थ्यो	-15124
ज्या	-15125
▁किमि	-15126
▁सत्या	-15127
▁सन्ध्या	-15128
▁रोमाञ्चक	-15129
▁आमाबाबु	-15130
▁पुर्याइ	-15131
▁स्वास्थ्यमन्त्री	-15132
▁मैनाली	-15133
▁देशहरुमा	-15134
▁मातृभाषा	-15135
अनि	-15136
▁बढाउ	-15137
▁छैनौँ	-15138
▁नगरेका	-15139
▁हुनसक्	-15140
भरमा	-15141
धिकृत	-15142
छिन्द्र	-15143
▁एनआईसी	-15144
▁कानुनमा	-15145
[...]
